{"version":"1.0","truncation":null,"padding":null,"added_tokens":[{"id":0,"special":true,"content":"<s>","single_word":false,"lstrip":false,"rstrip":false,"normalized":false},{"id":1,"special":true,"content":"<pad>","single_word":false,"lstrip":false,"rstrip":false,"normalized":false},{"id":2,"special":true,"content":"</s>","single_word":false,"lstrip":false,"rstrip":false,"normalized":false},{"id":3,"special":true,"content":"<unk>","single_word":false,"lstrip":false,"rstrip":false,"normalized":false},{"id":50184,"special":true,"content":"<mask>","single_word":false,"lstrip":false,"rstrip":false,"normalized":false}],"normalizer":{"type":"Sequence","normalizers":[{"type":"Nmt"},{"type":"NFKC"},{"type":"Replace","pattern":{"Regex":" {2,}"},"content":" "}]},"pre_tokenizer":{"type":"Sequence","pretokenizers":[{"type":"Whitespace"},{"type":"Punctuation"},{"type":"ByteLevel","add_prefix_space":true,"trim_offsets":true}]},"post_processor":{"type":"RobertaProcessing","sep":["</s>",2],"cls":["<s>",0],"trim_offsets":true,"add_prefix_space":true},"decoder":{"type":"ByteLevel","add_prefix_space":true,"trim_offsets":true},"model":{"type":"BPE","dropout":null,"unk_token":null,"continuing_subword_prefix":null,"end_of_word_suffix":null,"fuse_unk":false,"vocab":{"<s>":0,"<pad>":1,"</s>":2,"<unk>":3,"Ġ.":4,"Ġ,":5,"Ġoch":6,"Ġi":7,"Ġatt":8,"ĠÃ¤r":9,"Ġsom":10,"ĠpÃ¥":11,"Ġen":12,"Ġdet":13,"Ġ-":14,"ĠfÃ¶r":15,"Ġmed":16,"Ġav":17,"Ġtill":18,"Ġhar":19,"Ġden":20,"Ġinte":21,"Ġom":22,"Ġett":23,"Ġjag":24,"Ġde":25,"Ġ\"":26,"ĠDet":27,"ĠsÃ¥":28,"Ġ:":29,"Ġvar":30,"Ġkan":31,"Ġvi":32,"Ġman":33,"ĠfrÃ¥n":34,"Ġsig":35,"Ġ)":36,"Ġhan":37,"Ġmen":38,"Ġdu":39,"Ġ(":40,"Ġeller":41,"Ġ!":42,"Ġska":43,"Ġ?":44,"ĠJag":45,"ĠI":46,"ĠÃ¥r":47,"ĠnÃ¤r":48,"Ġvara":49,"Ġkommer":50,"Ġut":51,"Ġunder":52,"ĠMen":53,"ĠdÃ¤r":54,"ĠhÃ¤r":55,"Ġnu":56,"Ġupp":57,"s":58,"Ġin":59,"ĠocksÃ¥":60,"Ġvid":61,"Ġhade":62,"Ġfinns":63,"ĠVi":64,"ĠÃ¶ver":65,"Ġ/":66,"Ġefter":67,"Ġmycket":68,"Ġalla":69,"ĠsÃ¤ger":70,"ĠfÃ¥r":71,"ĠdÃ¥":72,"Ġskulle":73,"Ġha":74,"Ġ1":75,"Ġhon":76,"ĠDen":77,"Ġsin":78,"Ġandra":79,"Ġmot":80,"ĠfÃ¥":81,"Ġbara":82,"Ġmig":83,"Ġvill":84,"ĠÃ¤n":85,"Ġbra":86,"Ġblir":87,"ĠEn":88,"ĠÃ¤ven":89,"Ġmer":90,"Ġhur":91,"en":92,"Ġ2":93,"Ġvad":94,"ĠDe":95,"Ġsedan":96,"ĠtvÃ¥":97,"Ġlite":98,"ens":99,"ĠnÃ¥got":100,"ĠmÃ¥nga":101,"ĠHan":102,"as":103,"Ġdetta":104,"Ġutan":105,"et":106,"Ġfick":107,"Ġta":108,"ar":109,"Ġse":110,"Ġbli":111,"Ġblev":112,"ĠgÃ¶ra":113,"Ġ3":114,"ĠgÃ¥r":115,"Ġju":116,"ĠFÃ¶r":117,"Ġvarit":118,"ĠnÃ¥gon":119,"Ġallt":120,"ĠmÃ¥ste":121,"Ġoss":122,"ĠgÃ¶r":123,"ĠOch":124,"ĠfÃ¶rsta":125,"at":126,"ade":127,"Ġgenom":128,"Ġdem":129,"Ġfram":130,"Ġhela":131,"Ġmin":132,"Ġdel":133,"Ġnya":134,"Ġsina":135,"ĠSverige":136,"ĠnÃ¥gra":137,"Ġ5":138,"Ġmellan":139,"Ġolika":140,"arna":141,"Ġdag":142,"Ġdig":143,"Ġhelt":144,"Ġinom":145,"Ġ4":146,"ande":147,"Ġs":148,"erna":149,"Ġskall":150,"i":151,"Ġtid":152,"ĠNÃ¤r":153,"Ġdenna":154,"an":155,"Ġannat":156,"ĠâĢĿ":157,"Ġkom":158,"Ġsamt":159,"Ġsitt":160,"Ġkunna":161,"Ġstor":162,"ĠOm":163,"are":164,"a":165,"Ġbarn":166,"ĠPÃ¥":167,"ĠsjÃ¤lv":168,"Ġstora":169,"ĠvÃ¤l":170,"ĠC":171,"ĠNu":172,"Ġtre":173,"ĠgÃ¥":174,"Ġser":175,"ĠDu":176,"ĠrÃ¤tt":177,"ad":178,"ĠsÃ¤tt":179,"Ġ10":180,"ning":181,"ĠS":182,"Ġsamma":183,"o":184,"Ġ6":185,"ĠbÃ¥de":186,"ĠvÃ¥r":187,"Ġdessa":188,"Ġt":189,"Ġni":190,"Ġkanske":191,"er":192,"Ġ;":193,"es":194,"Ġligger":195,"Ġflera":196,"ĠfÃ¥tt":197,"Ġkunde":198,"Ġbland":199,"Ġhem":200,"Ġhans":201,"Ġvilket":202,"in":203,"Ġm":204,"e":205,"ĠAtt":206,"Ġo":207,"Ġa":208,"Ġvet":209,"Ġhonom":210,"ĠgÃ¤ller":211,"Ġdin":212,"ĠSÃ¥":213,"t":214,"ĠÃ¥t":215,"Ġgick":216,"Ġny":217,"Ġsvenska":218,"Ġhos":219,"Ġtidigare":220,"ĠâĢĵ":221,"ĠB":222,"Ġkronor":223,"Ġ000":224,"Ġinnan":225,"Ġingen":226,"Ġtar":227,"ĠHon":228,"ĠA":229,"ĠT":230,"Ġredan":231,"Ġkomma":232,"Ġdock":233,"ningen":234,"ĠgÃ¥ng":235,"Ġenligt":236,"Ġ0":237,"Ġfall":238,"Ġtror":239,"Ġ30":240,"ĠM":241,"or":242,"ĠbÃ¤ttre":243,"ĠbehÃ¶ver":244,"ĠbÃ¶r":245,"Ġ7":246,"Ġigen":247,"Ġ20":248,"Ġtycker":249,"Ġalltid":250,"ĠStockholm":251,"Ġrunt":252,"ĠMan":253,"Ġprocent":254,"Ġvarje":255,"Ġner":256,"h":257,"ĠEtt":258,"ĠL":259,"Ġ8":260,"Ġger":261,"ĠK":262,"Ġaldrig":263,"ĠvÃ¥ra":264,"Ġ15":265,"Ġjust":266,"st":267,"ĠH":268,"Ġnog":269,"Ġtiden":270,"Ġgjorde":271,"Ġsex":272,"Ġtog":273,"ĠvÃ¤ldigt":274,"Ġkl":275,"Ġannan":276,"d":277,"ĠP":278,"na":279,"Ġur":280,"ĠbÃ¤sta":281,"Ġmest":282,"ĠMed":283,"on":284,"ĠV":285,"ĠD":286,"ĠG":287,"Ġfolk":288,"Ġgjort":289,"Ġkr":290,"Ġmitt":291,"Ġplats":292,"ĠstÃ¶rre":293,"ig":294,"Ġtillbaka":295,"ats":296,"de":297,"ing":298,"ĠmÃ¤nniskor":299,"Ġge":300,"Ġ12":301,"Ġbort":302,"ĠF":303,"n":304,"ĠstÃ¥r":305,"Ġe":306,"aren":307,"Ġ&":308,"ĠDetta":309,"Ġriktigt":310,"Ġmindre":311,"y":312,"Ġderas":313,"ĠDÃ¥":314,"ĠEfter":315,"Ġ9":316,"f":317,"ets":318,"Ġliv":319,"Ġlika":320,"ĠE":321,"ĠmÃ¥l":322,"Ġblivit":323,"sk":324,"is":325,"ĠVad":326,"ĠR":327,"ĠHÃ¤r":328,"Ġeftersom":329,"el":330,"m":331,"Ġidag":332,"Ġfler":333,"Ġtillsammans":334,"Ġpersoner":335,"k":336,"ĠsÃ¤ga":337,"Ġhand":338,"Ġ'":339,"Ġkvar":340,"Ġper":341,"ĠUnder":342,"v":343,"ĠHar":344,"ningar":345,"ĠdÃ¤rfÃ¶r":346,"berg":347,"Ġhaft":348,"it":349,"Ġ00":350,"ĠÃ¤ndÃ¥":351,"ĠSom":352,"Ġ%":353,"Ġfyra":354,"Ġstort":355,"iga":356,"Ġofta":357,"Ġsenaste":358,"ĠHur":359,"ĠÃ¤nnu":360,"ĠfÃ¶retag":361,"ades":362,"ĠÂ»":363,"Ġ@":364,"Ġegen":365,"Ġ18":366,"Ġsenare":367,"Ġhenne":368,"al":369,"Ġverkligen":370,"ĠlÃ¤ngre":371,"Ġsa":372,"Ġpar":373,"Ġgrund":374,"Ġlag":375,"Ġsen":376,"l":377,"p":378,"Ġ50":379,"iska":380,"ĠlÃ¤nge":381,"ĠsvÃ¥rt":382,"ans":383,"g":384,"ĠvÃ¤g":385,"man":386,"lig":387,"b":388,"ĠfÃ¶rst":389,"Ġlandet":390,"ĠÃ¥ret":391,"Ġ16":392,"ĠN":393,"Ġicke":394,"Ġexempel":395,"Ġslut":396,"Ġhemma":397,"Ġganska":398,"ĠJ":399,"orna":400,"Ġsista":401,"Ġ11":402,"Ġ14":403,"ĠlÃ¤tt":404,"u":405,"Ġp":406,"ĠO":407,"liga":408,"Ġpengar":409,"Ġvisar":410,"Ġbil":411,"ligt":412,"Ġvidare":413,"Ġdom":414,"ĠhjÃ¤lp":415,"ĠinfÃ¶r":416,"ĠalltsÃ¥":417,"nings":418,"Ġdirekt":419,"Ġ13":420,"Ġhennes":421,"Ġfem":422,"j":423,"ĠTill":424,"Ġinget":425,"ĠkÃ¤nner":426,"da":427,"Ġproblem":428,"Ġkommun":429,"ĠbÃ¶rjade":430,"Ġ17":431,"ĠfÃ¶re":432,"isk":433,"Ġer":434,"Ġmina":435,"ra":436,"ed":437,"ĠnÃ¤stan":438,"Ġvissa":439,"Ġdess":440,"Ġdagar":441,"r":442,"Ġgamla":443,"Ġgratis":444,"ĠinnebÃ¤r":445,"os":446,"Ġan":447,"us":448,"ĠlÃ¥ng":449,"Ġgod":450,"ĠstÃ¶rsta":451,"Ġb":452,"ĠgÃ¤rna":453,"Ġarbete":454,"Ġof":455,"Ġspel":456,"ĠfrÃ¥ga":457,"Ġfortfarande":458,"Ġtalet":459,"Ġf":460,"ĠsÃ¥g":461,"Ġkvinnor":462,"ĠW":463,"ĠsmÃ¥":464,"sson":465,"Ġmiljoner":466,"ĠingÃ¥r":467,"Ġn":468,"Ġhandlar":469,"Ġville":470,"Ġnytt":471,"Ġkm":472,"Ġ25":473,"ĠhÃ¶g":474,"igt":475,"Ġliten":476,"ĠnÃ¤sta":477,"ĠlÃ¥ngt":478,"ĠhÃ¥ller":479,"Ġform":480,"Ġned":481,"ĠgÃ¥tt":482,"ĠÂ°":483,"z":484,"ĠÃĦven":485,"ĠsjÃ¤lva":486,"Ġvatten":487,"Ġklart":488,"ĠSedan":489,"Ġmat":490,"Ġendast":491,"Ġsett":492,"ĠVid":493,"Ġvilka":494,"Ġminst":495,"Ġsamtidigt":496,"Ġmeter":497,"Ġ|":498,"ĠkÃ¤nns":499,"ĠvÃ¥rt":500,"Ġdagen":501,"ka":502,"ĠhÃ¥lla":503,"Ġborde":504,"c":505,"Ġ100":506,"ĠnÃ¤ra":507,"Ġute":508,"Ġ19":509,"Ġex":510,"ĠÃĦr":511,"ĠbÃ¶rjar":512,"Ġfaktiskt":513,"Ġkort":514,"Ġsaker":515,"Ġinformation":516,"Ġtrots":517,"S":518,"ss":519,"Ġd":520,"ĠgÃ¥ngen":521,"ĠbÃ¶rjan":522,"Ġh":523,"Ġsvensk":524,"Ġfast":525,"Ġperson":526,"ĠgÃ¥nger":527,"ik":528,"Ġfanns":529,"Ġfel":530,"ers":531,"Ġg":532,"Ġihop":533,"Ġenda":534,"Ġvilken":535,"Ġextra":536,"ĠUSA":537,"Ġall":538,"Ġk":539,"Ġhitta":540,"Ġemot":541,"Ġr":542,"Ġegna":543,"fÃ¶r":544,"om":545,"ia":546,"Ġord":547,"ĠberÃ¤ttar":548,"ĠmÃ¶jligt":549,"ĠAlla":550,"ĠAv":551,"la":552,"ĠfÃ¶rra":553,"ĠvÃ¤rlden":554,"Ġbl":555,"Ġca":556,"Ġmm":557,"ĠÃ¥":558,"Ġ40":559,"Ġprecis":560,"Ġenkelt":561,"ĠbÃ¥da":562,"Ġditt":563,"Ġjobb":564,"ne":565,"ĠstÃ¤llet":566,"era":567,"ĠlÃ¥g":568,"Ġ*":569,"Ġnamn":570,"Ġgott":571,"Ġheller":572,"Ġspela":573,"Ġflesta":574,"des":575,"ĠJa":576,"Ġfamiljen":577,"ĠutanfÃ¶r":578,"Ġkring":579,"id":580,"ĠfrÃ¥gor":581,"Ġfilm":582,"ĠanvÃ¤nda":583,"Ġkommit":584,"Ġland":585,"Ã©n":586,"sta":587,"ĠGÃ¶teborg":588,"Ġhoppas":589,"ie":590,"Ġdessutom":591,"ĠframfÃ¶r":592,"Ġval":593,"Ġhelst":594,"Ġl":595,"Ġsenast":596,"Ġytterligare":597,"Ġmedan":598,"ĠSveriges":599,"2":600,"Ġv":601,"Ġhus":602,"ĠsÃ¤rskilt":603,"ĠÃ¥rs":604,"Ġskriver":605,"ĠfÃ¶rslag":606,"ĠDÃ¤r":607,"Ġbeslut":608,"re":609,"ĠsÃ¥dan":610,"ĠEnligt":611,"Ġtagit":612,"ĠfrÃ¥gan":613,"Ġ21":614,"Ġinga":615,"Ã¥":616,"Ġsidan":617,"Ġdelen":618,"ist":619,"Ġviktigt":620,"ĠÃ¥ren":621,"andet":622,"Ġhel":623,"Ġej":624,"Ġvia":625,"Ġdina":626,"Ġtal":627,"ĠInte":628,"ĠvarfÃ¶r":629,"Ġveckan":630,"erade":631,"ĠstÃ¶d":632,"Ġrum":633,"Ġmusik":634,"Ġsnabbt":635,"Ġens":636,"ta":637,"Ġsnart":638,"Ġskolan":639,"Ġdelar":640,"ĠmÃ¥naden":641,"ch":642,"Ġj":643,"Ġtio":644,"Ġbakom":645,"Ġminuter":646,"il":647,"ier":648,"Ġpris":649,"te":650,"Ġ22":651,"ut":652,"ĠÃ¤ldre":653,"Ã¶":654,"Ġc":655,"Ġlivet":656,"ĠRT":657,"Ġverksamhet":658,"ningarna":659,"sen":660,"ĠmÃ¤n":661,"Ġbild":662,"ĠSt":663,"um":664,"der":665,"ts":666,"Ġvarandra":667,"Ġsagt":668,"Ġaf":669,"Ġ[":670,"Ġspelar":671,"Ġsitter":672,"ĠkÃ¶pa":673,"4":674,"Ġjanuari":675,"Ġegentligen":676,"Ġst":677,"Ġ]":678,"em":679,"Ġvecka":680,"ĠvÃ¤gen":681,"L":682,"K":683,"ot":684,"ma":685,"iskt":686,"den":687,"ĠsÃ¶ker":688,"Ġutveckling":689,"1":690,"ĠmÃ¶jlighet":691,"Ġbrukar":692,"Ġantal":693,"Ġmenar":694,"Ġstod":695,"ĠTV":696,"Ġstad":697,"Ġbilder":698,"Ġ24":699,"3":700,"ĠEU":701,"Ġarbetar":702,"Ġhuvud":703,"ste":704,"Ġtag":705,"ol":706,"T":707,"strÃ¶m":708,"Ġibland":709,"Ġfin":710,"Ġkul":711,"am":712,"Ġverkar":713,"Ġanser":714,"ĠSvenska":715,"ĠtÃ¤nker":716,"Ġ23":717,"Ġsak":718,"Ã¤r":719,"Ġbor":720,"Ġfor":721,"ĠtÃ¤nka":722,"ĠÃ¥ter":723,"Ġmaj":724,"Ġbok":725,"ation":726,"het":727,"Ġ60":728,"Ġtur":729,"Ġtimmar":730,"ĠAB":731,"Ġja":732,"Ġsatt":733,"nas":734,"Ġel":735,"ĠMalmÃ¶":736,"Ġutbildning":737,"ĠHans":738,"Ġbehov":739,"Ã©":740,"ent":741,"Ġvisa":742,"ell":743,"ĠlÃ¤gga":744,"Ġomkring":745,"ur":746,"Ġregeringen":747,"ag":748,"Ġskapa":749,"Ġunga":750,"ĠhÃ¶gre":751,"B":752,"Ġjuli":753,"ĠMin":754,"arnas":755,"A":756,"var":757,"ĠlÃ¤sa":758,"Ġspelare":759,"Ġkultur":760,"ant":761,"Ġveta":762,"ĠsÃ¥dana":763,"ĠkvÃ¤ll":764,"Ġresultat":765,"ĠbÃ¶rja":766,"Ġsida":767,"Ġmatch":768,"ĠnÃ¤mligen":769,"ken":770,"x":771,"erat":772,"ĠhÃ¤nder":773,"ska":774,"ĠistÃ¤llet":775,"ĠbÃ¤st":776,"Ġsade":777,"ĠmÃ¥nader":778,"ĠU":779,"ic":780,"ĠDessutom":781,"Ã¥r":782,"D":783,"Ã¤":784,"Ġkrav":785,"Ġskriva":786,"Ġtyp":787,"Ġpersonal":788,"Ġpolisen":789,"ĠIn":790,"Ġbarnen":791,"ĠstÃ¥":792,"Ġtredje":793,"ĠsÃ¤kert":794,"ir":795,"le":796,"Ġliksom":797,"Ġkommunen":798,"V":799,"Ġigenom":800,"F":801,"sl":802,"Ġgav":803,"ĠVar":804,"ĠThe":805,"sb":806,"Ġskol":807,"Ġthe":808,"ĠkÃ¶r":809,"ering":810,"ernas":811,"Ġslutet":812,"ĠifrÃ¥n":813,"Ġfull":814,"Ġcirka":815,"Ġjuni":816,"Ġalls":817,"ĠsÃ¤tta":818,"ĠÃ¥ka":819,"ov":820,"ĠlÃ¤r":821,"Ã¶r":822,"ĠkÃ¤nna":823,"Ġgoda":824,"Ġsamband":825,"Ġtro":826,"ĠlÃ¤nder":827,"w":828,"ĠnederbÃ¶rd":829,"ĠMÃ¥nga":830,"ĠordfÃ¶rande":831,"ĠDenna":832,"sp":833,"Ġvann":834,"ter":835,"Ġveckor":836,"M":837,"Ġkvinna":838,"ĠvÃ¥rd":839,"Ġtills":840,"ĠhjÃ¤lpa":841,"Ġansvar":842,"ĠomrÃ¥det":843,"ĠInga":844,"Ġviss":845,"I":846,"Ġtv":847,"ĠanvÃ¤nder":848,"Ġmamma":849,"Ġlilla":850,"G":851,"ingen":852,"sm":853,"Ġaugusti":854,"Ġsommar":855,"ĠFrÃ¥n":856,"ĠdÃ¶d":857,"ĠfortsÃ¤tter":858,"by":859,"Ġhavet":860,"Ġfina":861,"ling":862,"ĠvÃ¤lja":863,"ĠSk":864,"ĠAndersson":865,"Ġkontakt":866,"sa":867,"Ġgrupp":868,"Ġdit":869,"ĠvÃ¤nner":870,"ĠKan":871,"Ġsteg":872,"ĠlÃ¤n":873,"ak":874,"P":875,"Ġmars":876,"ĠfÃ¶rsÃ¶ka":877,"Ġeget":878,"ĠErik":879,"ĠÃ¶vriga":880,"ĠÂŃ":881,"5":882,"EN":883,"men":884,"iv":885,"Ġdags":886,"6":887,"ĠIdag":888,"erad":889,"kar":890,"Ġmatchen":891,"Ġinne":892,"Ġhittar":893,"Ġsker":894,"Ġli":895,"Ġheter":896,"ĠPer":897,"Ġprogram":898,"att":899,"Ġvisade":900,"Ġlaget":901,"Ġand":902,"Ġsvar":903,"Ġroll":904,"Ġbetala":905,"ĠSex":906,"Ġrad":907,"ĠmÃ¥nad":908,"Ġuppgifter":909,"Ġ+":910,"ĠdÃ¤rmed":911,"ĠSen":912,"Ġvanligt":913,"ĠhÃ¶r":914,"Ġseptember":915,"ĠsÃ¥dant":916,"ja":917,"Ġarbeta":918,"ĠmiljÃ¶":919,"ĠAllt":920,"H":921,"Ġtrakten":922,"Ġbygga":923,"ĠNi":924,"ĠSe":925,"lar":926,"U":927,"ĠAnders":928,"sv":929,"E":930,"Ġ=":931,"Ġmera":932,"Ġarbetet":933,"ĠhÃ¥ll":934,"ĠlÃ¤mna":935,"Ġgillar":936,"Ġkunnat":937,"Ġemellertid":938,"ĠJohansson":939,"Ġsk":940,"ĠDÃ¤rfÃ¶r":941,"erar":942,"and":943,"Ġerfarenhet":944,"rar":945,"Ġ70":946,"Ġresa":947,"Ġbetyder":948,"ĠfÃ¶rsÃ¶ker":949,"ill":950,"ĠÂ·":951,"Ġsp":952,"ĠfortsÃ¤tta":953,"Ġhalv":954,"sten":955,"Ġdecember":956,"Ġintresse":957,"Ġroligt":958,"Ġvilja":959,"im":960,"ĠhÃ¶gsta":961,"iet":962,"Ġklara":963,"N":964,"Ġapril":965,"Ġalldeles":966,"Ġbe":967,"Ġsju":968,"Ġplan":969,"eg":970,"ĠlÃ¤ra":971,"ĠhÃ¶ll":972,"art":973,"ĠAl":974,"Ġspelade":975,"eras":976,"Ġ80":977,"ĠungefÃ¤r":978,"op":979,"Ġoktober":980,"ĠLars":981,"Ġ26":982,"ett":983,"Ġpa":984,"Ġbrott":985,"C":986,"Ġvem":987,"ĠZ":988,"Ġnovember":989,"Ġbostad":990,"Ġbilen":991,"Ġfamilj":992,"ys":993,"kt":994,"Ġ2018":995,"ĠEller":996,"ĠEuropa":997,"ĠfrÃ¤mst":998,"Ġ28":999,"bo":1000,"8":1001,"Ġjobba":1002,"ĠVM":1003,"Ġstart":1004,"Ġre":1005,"ĠNej":1006,"rade":1007,"Ġjul":1008,"Ġklar":1009,"ven":1010,"Ġanledning":1011,"Ġsocial":1012,"Ġfinnas":1013,"Ġgammal":1014,"Ġlitet":1015,"ĠpoÃ¤ng":1016,"ĠStockholms":1017,"ĠsÃ¤kerhet":1018,"O":1019,"ĠBo":1020,"Ġmorgon":1021,"Ġsamman":1022,"Ġfebruari":1023,"pa":1024,"Ġkonst":1025,"Ġdra":1026,"ĠbestÃ¥r":1027,"Ġekonomiska":1028,"sf":1029,"ĠbehÃ¶vs":1030,"ĠfÃ¶lja":1031,"Ġtopp":1032,"Ġfullt":1033,"mer":1034,"7":1035,"ĠY":1036,"Ġfort":1037,"Ġ500":1038,"av":1039,"ro":1040,"ĠinvÃ¥nare":1041,"Ġfar":1042,"Ġena":1043,"ĠVill":1044,"Ġskola":1045,"Ġjobbet":1046,"ĠAnna":1047,"ĠÃ¥rets":1048,"Ġ27":1049,"Ġantalet":1050,"ek":1051,"ĠrÃ¶r":1052,"Ġjobbar":1053,"ĠJohan":1054,"Ġlever":1055,"ĠkÃ¤nde":1056,"ok":1057,"ion":1058,"ĠVarfÃ¶r":1059,"Ġtyckte":1060,"Ġglad":1061,"Ġslag":1062,"ationen":1063,"ĠlÃ¥ter":1064,"ĠÃħ":1065,"Ġfungerar":1066,"Ġ90":1067,"ĠAn":1068,"est":1069,"Ġporr":1070,"ĠsÃ¤songen":1071,"Ġmannen":1072,"ĠvÃ¤rld":1073,"Ġpolis":1074,"ĠhÃ¥rt":1075,"Ġtjejer":1076,"Ġvinna":1077,"Ġbo":1078,"ĠGenom":1079,"va":1080,"ER":1081,"ĠlÃ¥ta":1082,"Ġpolitiska":1083,"ul":1084,"ĠKanske":1085,"Ġexempelvis":1086,"ĠsÃ¥vÃ¤l":1087,"ĠrÃ¥d":1088,"ĠSamtidigt":1089,"Ġdejting":1090,"Ġ#":1091,"Ġprojekt":1092,"och":1093,"ri":1094,"Ġdjur":1095,"Ġ2017":1096,"hus":1097,"Ġfotboll":1098,"its":1099,"Ġtack":1100,"Ġ_":1101,"sfÃ¶r":1102,"Ġskrev":1103,"ĠspÃ¤nnande":1104,"ĠPeter":1105,"ĠbesÃ¶k":1106,"ĠlÃ¥nga":1107,"Ġ45":1108,"Ġ08":1109,"ĠfÃ¶ljande":1110,"ĠÃĸ":1111,"Ġerbjuder":1112,"ĠSka":1113,"ĠDessa":1114,"ĠvÃ¤rldens":1115,"Ġprodukter":1116,"ĠÃ¤ta":1117,"Ġliknande":1118,"Ġtelefon":1119,"Ġ31":1120,"ĠfÃ¤rg":1121,"ĠkrÃ¤vs":1122,"ister":1123,"Ġpassar":1124,"ĠBr":1125,"R":1126,"Ġdrygt":1127,"un":1128,"ĠmÃ¶jligheter":1129,"Ġflyg":1130,"ĠIngen":1131,"Ġviktig":1132,"Ġ2015":1133,"Ġske":1134,"Ġfr":1135,"ĠÃ¥lder":1136,"Ġ200":1137,"ĠsÃ¥som":1138,"Ġhistoria":1139,"Ġvore":1140,"Ġstaden":1141,"ina":1142,"ĠvÃ¤ljer":1143,"Ġguld":1144,"else":1145,"ĠtÃ¤nkte":1146,"Ġva":1147,"Ġdels":1148,"ĠsamhÃ¤llet":1149,"nade":1150,"ĠigÃ¥ng":1151,"Ġuppdrag":1152,"Ġmassa":1153,"Ġbilden":1154,"Ġfint":1155,"lag":1156,"Ġmedel":1157,"Ġplatser":1158,"Ġdagens":1159,"Ġsystem":1160,"ien":1161,"ĠnÃ¤rmare":1162,"od":1163,"Ġtidigt":1164,"Ġ2016":1165,"ĠÃ¥tta":1166,"Ġarbet":1167,"ĠanstÃ¤llda":1168,"Ġ35":1169,"ĠfÃ¶rÃ¤ldrar":1170,"Ġsommaren":1171,"ĠÃ¶vrigt":1172,"ĠskÃ¤l":1173,"und":1174,"Ġelever":1175,"Ġ2014":1176,"Ġframtiden":1177,"ĠfÃ¶rstÃ¥r":1178,"els":1179,"Ġuppgift":1180,"ĠstÃ¤lla":1181,"ĠsÃ¶ndag":1182,"gren":1183,"Ġkrig":1184,"Ġmedlemmar":1185,"ĠÃ¥kte":1186,"Ġpost":1187,"ĠÃ¤lskar":1188,"Ġljus":1189,"ĠmÃ¥n":1190,"gen":1191,"Ġhit":1192,"Ġtrafik":1193,"Ġto":1194,"ster":1195,"ĠfÃ¶rstÃ¥s":1196,"ĠLife":1197,"ĠÃ¶ka":1198,"Ġtalar":1199,"Ġonline":1200,"ĠhÃ¶ra":1201,"ĠTvÃ¥":1202,"ĠNilsson":1203,"Ġ29":1204,"Ġhuset":1205,"Ġstund":1206,"Ġstark":1207,"ĠÃ¥tgÃ¤rder":1208,"ĠTa":1209,"og":1210,"Ġamerikanska":1211,"ĠanvÃ¤nds":1212,"Ġlan":1213,"Ġavtal":1214,"9":1215,"ĠLe":1216,"ins":1217,"ĠJan":1218,"Ġannars":1219,"Ġleva":1220,"ĠÃ¶ppna":1221,"ĠkrÃ¤ver":1222,"ĠfÃ¶rstÃ¥":1223,"Ġnatur":1224,"ĠhÃ¶gt":1225,"Ġsamarbete":1226,"Ġmatcher":1227,"ĠtrÃ¤ning":1228,"ger":1229,"Ġenergi":1230,"ha":1231,"Ġbeskrevs":1232,"Ġkunskap":1233,"ĠvÃ¤ntar":1234,"ĠkvÃ¤llen":1235,"sh":1236,"se":1237,"Ġlagen":1238,"rÃ¤tt":1239,"ĠslÃ¤ktet":1240,"yn":1241,"ĠhÃ¶ga":1242,"ala":1243,"Ġklockan":1244,"rat":1245,"Ġpappa":1246,"ĠkÃ¶ra":1247,"Ġrisk":1248,"ring":1249,"Ġkraft":1250,"ĠinnehÃ¥ller":1251,"ver":1252,"ĠUt":1253,"Ġmiljarder":1254,"ĠnÃ¤tet":1255,"ĠnÃ¤rheten":1256,"Ġmaterial":1257,"ĠTrots":1258,"Ġtel":1259,"del":1260,"Ġvanliga":1261,"Ġsociala":1262,"ĠlÃ¤rare":1263,"Ġprata":1264,"Ġtanke":1265,"land":1266,"Ġnuvarande":1267,"Ġnatt":1268,"Ġtips":1269,"Ġborta":1270,"ord":1271,"bar":1272,"Ġstats":1273,"Ġboken":1274,"Ġchans":1275,"ĠomrÃ¥de":1276,"Ġsol":1277,"ighet":1278,"Ġberor":1279,"if":1280,"Ġsam":1281,"Ġnej":1282,"Ġunderarter":1283,"Ġlistade":1284,"ĠdÃ¤remot":1285,"Ġkallas":1286,"ĠNew":1287,"Ġgenomsnitt":1288,"ĠfÃ¶ljer":1289,"alt":1290,"Ġengelska":1291,"lade":1292,"ingar":1293,"Ġviktiga":1294,"Ġspeciellt":1295,"Ġsamtliga":1296,"ĠbehÃ¶va":1297,"Ġfl":1298,"ĠAr":1299,"Ġkvalitet":1300,"Ġtitta":1301,"Ġmassage":1302,"ons":1303,"ĠVÃ¥r":1304,"ĠlÃ¤gger":1305,"Ġnaturligtvis":1306,"ff":1307,"Ġtas":1308,"Ġbudget":1309,"Ġseger":1310,"ĠCatalogue":1311,"Ġtrodde":1312,"Ġleder":1313,"ras":1314,"Ġhuvudstaden":1315,"Ġservice":1316,"ĠCarl":1317,"stad":1318,"Ġmark":1319,"Ġberoende":1320,"ĠMer":1321,"Ġpass":1322,"rad":1323,"Ġskog":1324,"Ġtotalt":1325,"ĠfÃ¶dd":1326,"Ġingenting":1327,"Ġklass":1328,"ĠSp":1329,"Ġbetydelse":1330,"Ġkunder":1331,"Ġvisst":1332,"Ġkroppen":1333,"ĠSD":1334,"Ġstarkt":1335,"ĠanvÃ¤ndas":1336,"Ġslog":1337,"Ġchef":1338,"upp":1339,"Ġalternativ":1340,"ĠÃ¥ker":1341,"Ġfri":1342,"Ġhelgen":1343,"Ġsitta":1344,"ĠbÃ¶rjat":1345,"nar":1346,"ĠnÃ¥":1347,"ĠstÃ¤ller":1348,"ĠfÃ¶retaget":1349,"ga":1350,"ĠomrÃ¥den":1351,"Ġungdom":1352,"Ã¤n":1353,"ĠvÃ¤n":1354,"Ġallra":1355,"75":1356,"ĠfÃ¶rsÃ¶k":1357,"Ġintressant":1358,"ĠhjÃ¤lper":1359,"ner":1360,"Ġverksamheten":1361,"ĠLÃ¤s":1362,"ĠlÃ¶rdag":1363,"ĠÃ¶kar":1364,"io":1365,"ĠkÃ¤rlek":1366,"Ġbetydligt":1367,"ns":1368,"ĠvÃ¤rde":1369,"ings":1370,"nad":1371,"ars":1372,"Ġmil":1373,"Ġvin":1374,"ĠhÃ¤nsyn":1375,"ĠBland":1376,"ĠsprÃ¥k":1377,"ĠvÃ¤nster":1378,"anden":1379,"Ġsvart":1380,"Ġvare":1381,"alen":1382,"Ġabsolut":1383,"ĠEl":1384,"Ġsnabb":1385,"ĠJust":1386,"ĠlÃ¤ge":1387,"AN":1388,"lighet":1389,"ĠtÃ¤nkt":1390,"AR":1391,"Ġpension":1392,"mar":1393,"ĠdÃ¥ligt":1394,"ĠBerg":1395,"ud":1396,"Ġbehandling":1397,"min":1398,"J":1399,"ĠfÃ¶rsvar":1400,"Ġnorr":1401,"ĠRe":1402,"ĠUppsala":1403,"Ġbilar":1404,"ĠdÃ¤refter":1405,"ck":1406,"ors":1407,"Ġsv":1408,"ĠskÃ¶nt":1409,"Ġsjuk":1410,"ĠkÃ¶p":1411,"heten":1412,"ĠsÃ¶ka":1413,"ine":1414,"Ġtala":1415,"ser":1416,"ĠtrÃ¤ffa":1417,"je":1418,"ĠbÃ¶cker":1419,"Ġlokal":1420,"ĠhÃ¶ger":1421,"ĠbÃ¤r":1422,"Ã¶ren":1423,"Ġlokala":1424,"ke":1425,"ĠklÃ¤der":1426,"ĠhÃ¶st":1427,"elsen":1428,"Ġfilmen":1429,"eb":1430,"ĠSven":1431,"Ġpolitik":1432,"ef":1433,"ena":1434,"Ġdrog":1435,"Ġhotell":1436,"ĠGratis":1437,"kade":1438,"of":1439,"ĠberÃ¤tta":1440,"Ġrik":1441,"Ġherr":1442,"Ġhittills":1443,"Ġson":1444,"ĠrÃ¥der":1445,"Ġstan":1446,"ĠframÃ¥t":1447,"ĠEftersom":1448,"Ġenbart":1449,"Ġbad":1450,"Ġton":1451,"Ġperfekt":1452,"Ġlyckades":1453,"eringen":1454,"ĠCh":1455,"Ġvis":1456,"ĠtillrÃ¤ckligt":1457,"Ã¥s":1458,"Ġung":1459,"ĠnivÃ¥":1460,"ĠJo":1461,"ĠigÃ¥r":1462,"ĠlÃ¤gre":1463,"Ġsyn":1464,"ĠsÃ¤tter":1465,"Ġungdomar":1466,"ism":1467,"Ã¶n":1468,"Ġpolitiker":1469,"ĠslÃ¥":1470,"Ġkilometer":1471,"Ġkostar":1472,"ĠÃ¶kat":1473,"chef":1474,"Ġstraff":1475,"Ġvisste":1476,"ĠlÃ¥t":1477,"holm":1478,"Ġskatt":1479,"Ġnumera":1480,"Ġnatten":1481,"ĠÃ¶ppet":1482,"Ġensam":1483,"ob":1484,"Ġundan":1485,"ĠSvensk":1486,"ĠsamhÃ¤lle":1487,"ĠsvÃ¥r":1488,"ĠhÃ¶sten":1489,"Ġskillnad":1490,"Ġkontroll":1491,"Ġskrivit":1492,"Ġregering":1493,"ĠtjÃ¤nster":1494,"Ġsatte":1495,"ĠnÃ¶jd":1496,"ĠvÃ¥ld":1497,"ĠFÃ¶rst":1498,"Ġmedlem":1499,"li":1500,"tt":1501,"Ġanses":1502,"Ġotroligt":1503,"Ġcentrala":1504,"Ġfru":1505,"son":1506,"Ġvisat":1507,"Ġdrar":1508,"Ġ55":1509,"ĠgÃ¤llande":1510,"Ġleda":1511,"Ġoftast":1512,"ĠlÃ¶ne":1513,"Ġvackra":1514,"ĠKarl":1515,"ĠFinland":1516,"ĠLund":1517,"Ġar":1518,"Ġvart":1519,"eln":1520,"Ġtorde":1521,"ĠStefan":1522,"ber":1523,"Ġcom":1524,"rum":1525,"ĠTyskland":1526,"Ġ2013":1527,"Ġmakt":1528,"ĠmÃ¥":1529,"Y":1530,"ian":1531,"ost":1532,"iken":1533,"ort":1534,"ĠlÃ¥n":1535,"ĠnÃ¥gonsin":1536,"vis":1537,"Ġrespektive":1538,"ĠNy":1539,"ĠaffÃ¤r":1540,"Ġfredag":1541,"sam":1542,"ĠHa":1543,"Ġsport":1544,"Ġstockholm":1545,"Ġsamtal":1546,"ĠtÃ¤vling":1547,"ĠfÃ¶rut":1548,"ĠsÃ¤ker":1549,"Ġbygger":1550,"Ġfokus":1551,"ĠMaria":1552,"ĠNord":1553,"Ġbidrag":1554,"ĠvÃ¤xer":1555,"ll":1556,"Ġuppe":1557,"ĠsÃ¤song":1558,"ĠTack":1559,"ĠnÃ¥gonting":1560,"ĠplÃ¶tsligt":1561,"Ġvalet":1562,"ĠTh":1563,"Ġhund":1564,"Ġutveckla":1565,"gatan":1566,"Ġligga":1567,"ĠLa":1568,"Ġon":1569,"ĠÃ¶nskar":1570,"Ġvars":1571,"Ġtjej":1572,"ĠinlÃ¤gg":1573,"Ġbit":1574,"Ġkommande":1575,"Ġboende":1576,"Ġrent":1577,"ĠMar":1578,"Ġlopp":1579,"Ġsjukhus":1580,"Ġlyckas":1581,"Ġ300":1582,"ĠÃ¥tminstone":1583,"elser":1584,"verk":1585,"ĠrÃ¶st":1586,"ĠrÃ¤cker":1587,"Ġkommuner":1588,"Ġviktigaste":1589,"ĠallmÃ¤nna":1590,"ĠtjÃ¤nst":1591,"ĠBra":1592,"ĠNÃ¥gra":1593,"ĠGud":1594,"ationer":1595,"Ã¥n":1596,"ĠvÃ¤nta":1597,"sst":1598,"Ġverk":1599,"Ġren":1600,"ren":1601,"Ġvarmaste":1602,"ĠÃ¶gon":1603,"ĠspÃ¥r":1604,"ĠhÃ¶gst":1605,"vÃ¥rd":1606,"ĠivÃ¤g":1607,"ark":1608,"ĠTre":1609,"ĠlÃ¤ttare":1610,"ĠSch":1611,"Ġmening":1612,"Ġ75":1613,"Ġfallet":1614,"Ġfa":1615,"Ġminska":1616,"Ġhandel":1617,"Ġmillimeter":1618,"Ġis":1619,"ĠNorge":1620,"Ġforskning":1621,"Ġhot":1622,"Ġsaknar":1623,"Ġutvecklingen":1624,"par":1625,"slag":1626,"huset":1627,"ara":1628,"ĠLind":1629,"ĠutifrÃ¥n":1630,"Ġinternationella":1631,"ĠBara":1632,"ĠlÃ¶n":1633,"ĠBjÃ¶rn":1634,"ĠSM":1635,"ĠÃĸver":1636,"ĠhÃ¤st":1637,"ĠVarje":1638,"Ġvinter":1639,"Ġkropp":1640,"Ġluft":1641,"ĠmÃ¥ndag":1642,"age":1643,"Ġoavsett":1644,"ĠgÃ¶ras":1645,"Ġvinst":1646,"Ġvuxna":1647,"ĠansÃ¶kan":1648,"Ġal":1649,"ĠÃ¶":1650,"Ġwww":1651,"Ġkallaste":1652,"Ġidrott":1653,"Ġtydligt":1654,"ĠEr":1655,"Ġreda":1656,"Ġ^":1657,"Ġbar":1658,"Ġordning":1659,"ĠmÃ¥let":1660,"Ġregler":1661,"Ġfilmer":1662,"ott":1663,"Ġjord":1664,"Ġskapar":1665,"Ġhuvudet":1666,"Ġknappt":1667,"Ġmedeltemperaturen":1668,"ĠÃ¶kade":1669,"ĠÃ¶ppen":1670,"ĠberÃ¤ttade":1671,"ĠKarlsson":1672,"ĠtillgÃ¥ng":1673,"qvist":1674,"Ġflytta":1675,"Ġstaten":1676,"vÃ¤gen":1677,"ĠÃħrsmedeltemperaturen":1678,"kl":1679,"ang":1680,"ĠÃ¶rn":1681,"mark":1682,"ĠLarsson":1683,"hem":1684,"Ġproduktion":1685,"int":1686,"yr":1687,"ce":1688,"ĠkÃ¤nsla":1689,"orn":1690,"Ġfavorit":1691,"Ġkvadratkilometer":1692,"ĠBe":1693,"Ġprincip":1694,"ĠtillstÃ¥nd":1695,"Ġla":1696,"Ġbak":1697,"Ã¤ng":1698,"ĠÃ¤ger":1699,"ĠFredrik":1700,"ge":1701,"val":1702,"Ġtyska":1703,"ander":1704,"Ġuniversitet":1705,"ĠjÃ¤mfÃ¶rt":1706,"br":1707,"Ġvillkor":1708,"det":1709,"Ã¥ng":1710,"Ġriksdagen":1711,"all":1712,"Ġmarknaden":1713,"ĠUpp":1714,"Ġcm":1715,"ker":1716,"ĠhÃ¤nt":1717,"Ġvideo":1718,"dag":1719,"Ġben":1720,"Ġmesta":1721,"pl":1722,"ip":1723,"Ã¥g":1724,"Ġ2012":1725,"Ġvit":1726,"Ġserien":1727,"ller":1728,"ĠtyvÃ¤rr":1729,"Ġdagarna":1730,"ĠKom":1731,"Ġkallade":1732,"Ġfisk":1733,"Ġteknik":1734,"Ġblogg":1735,"ĠGenomsnittlig":1736,"Ġfjol":1737,"ĠOS":1738,"Ġmitten":1739,"ĠLÃ¥t":1740,"Ġcentrum":1741,"Ġor":1742,"ĠX":1743,"Ġpersonliga":1744,"Ġfred":1745,"Ġtorraste":1746,"Ġbr":1747,"Ġsluta":1748,"ionen":1749,"Ġparti":1750,"ĠmÃ¶te":1751,"Ġnyligen":1752,"Ġklubb":1753,"Ġregnigaste":1754,"Ġslutade":1755,"Ġframtid":1756,"ym":1757,"Ġsituation":1758,"Ġekonomi":1759,"ĠÃ¥rsnederbÃ¶rd":1760,"ĠPersson":1761,"ĠKl":1762,"Ġskydd":1763,"Ġvattnet":1764,"ĠlÃ¤ser":1765,"lund":1766,"ĠJohn":1767,"ĠutgÃ¶r":1768,"spel":1769,"ĠlÃ¤mnar":1770,"pp":1771,"ĠfÃ¶rbi":1772,"ĠfÃ¶ljd":1773,"form":1774,"Ġber":1775,"OR":1776,"Ġyngre":1777,"Ġledare":1778,"bergs":1779,"Ġnamnet":1780,"Ġx":1781,"Ġsist":1782,"be":1783,"ST":1784,"Ġledningen":1785,"ĠnÃ¤rvarande":1786,"ĠlÃ¤kare":1787,"Ġdating":1788,"Ġsemester":1789,"Ġplatsen":1790,"Ġtycks":1791,"kas":1792,"Ġmotsvarande":1793,"ĠnÃ¤tdejting":1794,"Ġledning":1795,"me":1796,"ram":1797,"Ġbrand":1798,"ten":1799,"ĠÃĸrebro":1800,"Ġtext":1801,"ĠfÃ¶rsÃ¶kte":1802,"Ġstrax":1803,"Ġdejta":1804,"Ġpress":1805,"ĠMitt":1806,"Ġses":1807,"Ġtidningen":1808,"Ġbolag":1809,"ĠsÃ¤lja":1810,"Ġfortsatt":1811,"Ġgett":1812,"ĠrÃ¤dd":1813,"ĠkÃ¶k":1814,"ĠFrankrike":1815,"ĠMartin":1816,"Ġpro":1817,"ium":1818,"Ġnio":1819,"pen":1820,"W":1821,"Ġkund":1822,"slagen":1823,"ps":1824,"Ġkaffe":1825,"Ġkolla":1826,"Ġlandets":1827,"ĠvÃ¥ren":1828,"ĠsÃ¶der":1829,"ika":1830,"ib":1831,"Ġprogrammet":1832,"Ġsuper":1833,"Ġkyrkan":1834,"Ġgruppen":1835,"ĠEriksson":1836,"Ġilla":1837,"ĠSam":1838,"Ġresten":1839,"ĠnÃ¤rmaste":1840,"ĠfÃ¶rutsÃ¤ttningar":1841,"bil":1842,"Ġglas":1843,"van":1844,"ĠkÃ¶rde":1845,"skolan":1846,"ug":1847,"gar":1848,"Ġstarka":1849,"borg":1850,"ierna":1851,"ĠMycket":1852,"ĠlÃ¤mnade":1853,"ĠSh":1854,"Ġw":1855,"Ġprivat":1856,"Ã¤tt":1857,"Ġvanlig":1858,"ĠlÃ¶sa":1859,"Ġlagt":1860,"Ġtr":1861,"plan":1862,"Ġ2010":1863,"ĠkÃ¤ndes":1864,"ĠmÃ¤nniska":1865,"Ġbrev":1866,"Ġkyrka":1867,"Ġknappast":1868,"Ġbygg":1869,"ET":1870,"ĠkÃ¶pte":1871,"Ġsent":1872,"ĠfÃ¶rslaget":1873,"Ġnr":1874,"Ġby":1875,"ĠStor":1876,"Ġomfattande":1877,"Ġges":1878,"ĠfÃ¶rmÃ¥ga":1879,"Ġont":1880,"Ġsn":1881,"ung":1882,"Ġdotter":1883,"Ġslags":1884,"ĠTÃ¤nk":1885,"Ġeleverna":1886,"ĠÃ¥ringen":1887,"Ġorganisation":1888,"ĠAll":1889,"Ġstat":1890,"derna":1891,"ĠEd":1892,"ies":1893,"Ġvikt":1894,"Ġkostnader":1895,"Ġ36":1896,"Ġtaget":1897,"ĠDanmark":1898,"vik":1899,"kr":1900,"Ġsaken":1901,"ex":1902,"Ġ$":1903,"Ġindustri":1904,"Ġgrader":1905,"ĠfÃ¶rsÃ¤ljning":1906,"ĠÃ¶kad":1907,"ĠpÃ¥gÃ¥r":1908,"per":1909,"Ġsl":1910,"ĠLondon":1911,"ĠtrÃ¶tt":1912,"Ġstanna":1913,"Ġpratar":1914,"Ġled":1915,"med":1916,"Ġdans":1917,"ĠsÃ¤llan":1918,"Ġvalt":1919,"IK":1920,"Ġlyckats":1921,"ĠDÃ¤remot":1922,"Ġprov":1923,"lla":1924,"ĠfÃ¶rhÃ¥llande":1925,"Ġpriset":1926,"Ġsvarar":1927,"Ġpengarna":1928,"Ġannorlunda":1929,"Ġescort":1930,"ĠsÃ¶dra":1931,"Ġstil":1932,"ran":1933,"Ġmedarbetare":1934,"Ġhittade":1935,"Ġ32":1936,"Ġlunch":1937,"ĠBarn":1938,"ĠFolk":1939,"Ġvalde":1940,"ĠStora":1941,"ĠHerr":1942,"nat":1943,"Ġchansen":1944,"ĠHem":1945,"Ġu":1946,"ĠsjÃ¤lvklart":1947,"Ġallvar":1948,"ĠSten":1949,"ĠhÃ¥r":1950,"ĠSa":1951,"Ġtankar":1952,"ON":1953,"ĠslÃ¥r":1954,"ĠtillfÃ¤lle":1955,"Ġutredning":1956,"Ġljud":1957,"ĠUmeÃ¥":1958,"Ġpriser":1959,"Ġgivetvis":1960,"ana":1961,"ĠhÃ¤lsa":1962,"mat":1963,"arbete":1964,"Ġovan":1965,"Ġserie":1966,"Ġy":1967,"Ġfan":1968,"dr":1969,"ater":1970,"Ġdela":1971,"ĠNÃ¥gon":1972,"Ġerbjuda":1973,"Ġsvara":1974,"ĠÃ¤nda":1975,"ĠFast":1976,"Ġbank":1977,"ĠalltfÃ¶r":1978,"ĠPorr":1979,"ĠhÃ¶rt":1980,"ĠnÃ¤rmast":1981,"Ġnummer":1982,"ĠlÃ¤genhet":1983,"ĠlÃ¤get":1984,"Ġfart":1985,"ĠmÃ¶ter":1986,"Ġra":1987,"ĠIbland":1988,"ĠTT":1989,"ĠOlsson":1990,"Ġenskilda":1991,"ĠDin":1992,"Ġband":1993,"Ġplus":1994,"Ġ2011":1995,"up":1996,"Ġhemsida":1997,"itt":1998,"sn":1999,"Ġsammanhang":2000,"Ġkredit":2001,"ĠfÃ¶rs":2002,"ĠsÃ¤mre":2003,"ĠbestÃ¤mt":2004,"ĠSvensson":2005,"itet":2006,"Ġberg":2007,"Ġhandla":2008,"ĠavgÃ¶rande":2009,"ong":2010,"Ġresultatet":2011,"Ġgrad":2012,"Ġfyller":2013,"Ġspelet":2014,"lat":2015,"Ġmassor":2016,"ĠDN":2017,"Ġtimme":2018,"ĠlÃ¶sning":2019,"Ġklarar":2020,"ĠkÃ¤nd":2021,"Ã¶v":2022,"Ġminns":2023,"Ġhundra":2024,"verket":2025,"ĠfÃ¶rr":2026,"ĠRedan":2027,"ske":2028,"ĠAndra":2029,"iss":2030,"Ġklimat":2031,"ler":2032,"ama":2033,"Ġbas":2034,"X":2035,"Ġvan":2036,"Ġ65":2037,"vet":2038,"Ġspelat":2039,"Ġ33":2040,"ĠfÃ¶rutom":2041,"00":2042,"bl":2043,"Ġvapen":2044,"Ġinternet":2045,"ast":2046,"Ġvita":2047,"Ġhuvudsak":2048,"ĠhÃ¤lften":2049,"ĠFN":2050,"Ġbyta":2051,"ĠdÃ¥lig":2052,"Ġalkohol":2053,"Ġskicka":2054,"ĠÃħr":2055,"Ġklubben":2056,"ĠstÃ¤llning":2057,"Ġfastighet":2058,"ĠgÃ¶rs":2059,"ssk":2060,"ĠsnÃ¶":2061,"ĠDagens":2062,"Ġkontor":2063,"Ġsidor":2064,"iva":2065,"Ġperioden":2066,"ret":2067,"Ġsituationen":2068,"ĠlÃ¤mnas":2069,"ĠtrÃ¤na":2070,"Ġhopp":2071,"Ġtorsdag":2072,"Ġ400":2073,"Ġbolaget":2074,"Ġresurser":2075,"ĠGÃ¶ran":2076,"Ġ01":2077,"ĠÃ¤ntligen":2078,"ĠYork":2079,"Ġsjukdom":2080,"Ġlyssna":2081,"Ġringa":2082,"ĠSVT":2083,"ĠGunnar":2084,"yl":2085,"Ġexakt":2086,"Ġgrupper":2087,"ab":2088,"Ġbyggnad":2089,"ĠkÃ¶n":2090,"Ġmarknad":2091,"Ġfantastiskt":2092,"he":2093,"ĠSjÃ¤lv":2094,"ĠvÃ¤der":2095,"Ġpresident":2096,"ĠglÃ¤dje":2097,"ard":2098,"ĠThomas":2099,"Ġkalla":2100,"ĠtillhÃ¶r":2101,"AL":2102,"Ġmiddag":2103,"isten":2104,"ĠTr":2105,"ĠpÃ¥verka":2106,"Ġnorra":2107,"istiska":2108,"Ġperiod":2109,"Ã¶ver":2110,"ĠFl":2111,"ida":2112,"ĠNya":2113,"ĠfjÃ¤rde":2114,"ĠtrÃ¤nare":2115,"iker":2116,"ĠrÃ¤kna":2117,"ĠmÃ¤ngd":2118,"ĠDaniel":2119,"ĠParis":2120,"ĠDavid":2121,"lin":2122,"ĠsÃ¤rskild":2123,"ĠMats":2124,"Ġsten":2125,"Ġro":2126,"ĠDel":2127,"Ġtisdag":2128,"Ġrelativt":2129,"ĠsamhÃ¤ll":2130,"ĠersÃ¤ttning":2131,"Ġkapital":2132,"ĠmÃ¶ta":2133,"ĠMa":2134,"Ã¶s":2135,"Ġtryck":2136,"ĠExpressen":2137,"ĠfÃ¶rklarar":2138,"ĠDom":2139,"ĠMaj":2140,"ĠrÃ¤tta":2141,"Ġenkel":2142,"ba":2143,"Ã¶k":2144,"ĠMagnus":2145,"ĠEngland":2146,"ius":2147,"Ġte":2148,"ĠsÃ¤ttet":2149,"Ġfest":2150,"arens":2151,"ingarna":2152,"gÃ¥ng":2153,"Ġblod":2154,"ĠfÃ¶rrÃ¤n":2155,"Ġtittar":2156,"mans":2157,"Ġsvarade":2158,"ĠstÃ¤ndigt":2159,"Ġspecial":2160,"yt":2161,"Ġuttryck":2162,"ĠKalmar":2163,"Ġfot":2164,"Ġkvinnan":2165,"ĠNÃ¥got":2166,"ĠBengt":2167,"Ġmodern":2168,"Ġintresserad":2169,"ow":2170,"sin":2171,"skap":2172,"yd":2173,"Ġbutik":2174,"Ġdam":2175,"Ã¤l":2176,"Ã¥t":2177,"ĠVem":2178,"fl":2179,"ĠallmÃ¤n":2180,"ĠrÃ¤knar":2181,"ĠkÃ¤nda":2182,"gÃ¥rden":2183,"Ġstudie":2184,"Ġriktig":2185,"ĠlÃ¤st":2186,"hl":2187,"ĠvÃ¤rd":2188,"Ġinkomst":2189,"plats":2190,"Ġonsdag":2191,"iden":2192,"ĠÃ¤ter":2193,"ĠhÃ¥rd":2194,"bb":2195,"str":2196,"ĠMarie":2197,"Ġlager":2198,"ou":2199,"Ġutvecklas":2200,"ĠSÃ¶der":2201,"Ġstartade":2202,"ĠihÃ¥g":2203,"ĠEM":2204,"ĠsÃ¥ng":2205,"Ġeffekt":2206,"pt":2207,"Ġpunkten":2208,"ĠJonas":2209,"ĠFr":2210,"Ġundrar":2211,"ĠtÃ¥g":2212,"Ġprodukt":2213,"ator":2214,"Ġvarken":2215,"Ġkon":2216,"Ġch":2217,"Ġstorlek":2218,"Ġfortsatte":2219,"ĠUn":2220,"Ġkritik":2221,"ft":2222,"ĠidÃ©":2223,"gr":2224,"las":2225,"Ġdelta":2226,"Ġcykel":2227,"Ġstudier":2228,"bara":2229,"ĠVisst":2230,"ĠAm":2231,"ĠlÃ¤ngs":2232,"ĠTor":2233,"Ġsyfte":2234,"ĠBil":2235,"Ġpunkt":2236,"Ġmor":2237,"ĠMot":2238,"ĠHade":2239,"Ġsnarare":2240,"Ġdebatt":2241,"ĠGr":2242,"ĠÃ¤ro":2243,"tal":2244,"sg":2245,"Ġoro":2246,"Ġpartiet":2247,"ĠrÃ¶d":2248,"inge":2249,"ju":2250,"isterna":2251,"ĠSkÃ¥ne":2252,"ĠkÃ¶per":2253,"iner":2254,"ĠVÃ¤st":2255,"Ã¶rer":2256,"gÃ¥rd":2257,"Ġkn":2258,"kom":2259,"ĠfrÃ¥gade":2260,"Ġvarav":2261,"Ġutom":2262,"Ġvarmt":2263,"ema":2264,"ĠsÃ¤rskilda":2265,"agen":2266,"ĠRunt":2267,"Ġbet":2268,"ligen":2269,"ĠHej":2270,"rik":2271,"Ġbakgrund":2272,"ĠrÃ¤dda":2273,"pÃ¥":2274,"Ġfree":2275,"ĠSK":2276,"Ġkap":2277,"Ġlugn":2278,"ĠutmÃ¤rkt":2279,"ĠtrÃ¤":2280,"als":2281,"Ġnormalt":2282,"Ġrestaurang":2283,"ĠmÃ¶jligheten":2284,"ĠFÃ¶rutom":2285,"Ġtrevlig":2286,"Ġfinner":2287,"Ġinsatser":2288,"ide":2289,"Ġstyr":2290,"Ġjorden":2291,"Ġ34":2292,"ĠBar":2293,"Ġvisas":2294,"skydd":2295,"ĠhÃ¤nde":2296,"ĠFlera":2297,"Ġgr":2298,"Ġteater":2299,"ĠsvÃ¥ra":2300,"ĠkÃ¤nt":2301,"nen":2302,"Ġtekniska":2303,"Ġ2000":2304,"Ġaktuella":2305,"ĠFÃ¶rsta":2306,"Ġfranska":2307,"Ġpart":2308,"ĠRyssland":2309,"ĠÃ¥rig":2310,"rÃ¥det":2311,"ĠGÃ¶r":2312,"Ġmilj":2313,"ĠâĢľ":2314,"Ġkille":2315,"Ġ>":2316,"ĠOlof":2317,"Ġbeslutet":2318,"Ġsova":2319,"ĠHela":2320,"Ġbefinner":2321,"Ġsm":2322,"Ġhamnar":2323,"ata":2324,"ssons":2325,"Ġ09":2326,"ĠhÃ¤nda":2327,"Ġtak":2328,"ĠKina":2329,"Ġtolv":2330,"Ġaktiviteter":2331,"Ġlokaler":2332,"Ġtider":2333,"ĠbÃ¥t":2334,"Ġskador":2335,"till":2336,"Ġstyrelsen":2337,"bart":2338,"Ġvitt":2339,"ĠUlf":2340,"Ġbarnet":2341,"Ġskull":2342,"ĠpÃ¥verkar":2343,"Ã¶d":2344,"Ġfunnits":2345,"ations":2346,"vin":2347,"Ġskogen":2348,"Ġsikt":2349,"som":2350,"enten":2351,"Ġkallar":2352,"Ġbjuder":2353,"Ġ150":2354,"Ġbuss":2355,"ĠÃ¶verens":2356,"Ġring":2357,"Ġkoll":2358,"Ġtydligen":2359,"Ġtyper":2360,"ĠPro":2361,"Ġbotten":2362,"ĠSkulle":2363,"ern":2364,"Ã¥ret":2365,"fr":2366,"Ġryska":2367,"Ġprivata":2368,"Ġpositivt":2369,"ĠkÃ¶tt":2370,"Ġbetyg":2371,"Ġskolor":2372,"ĠbehÃ¶vde":2373,"Ġfolket":2374,"fors":2375,"ĠundersÃ¶kning":2376,"AD":2377,"Ġkommunens":2378,"Ġartikel":2379,"sd":2380,"ĠÃ¤gg":2381,"Ġdvs":2382,"ĠfÃ¶rdel":2383,"Ã¤nd":2384,"ru":2385,"ĠoerhÃ¶rt":2386,"Ã¥l":2387,"ĠdrÃ¶m":2388,"oc":2389,"ĠEva":2390,"ĠIFK":2391,"ĠlÃ¤mnat":2392,"ĠVidare":2393,"Ġprojektet":2394,"Ġundantag":2395,"Ġflyttade":2396,"Ġkunskaper":2397,"Ġbetalar":2398,"Ġvacker":2399,"jer":2400,"ĠlÃ¤t":2401,"Ġder":2402,"Ġmotion":2403,"ĠvÃ¤rme":2404,"Ġfantastisk":2405,"Ġsystemet":2406,"Ġantingen":2407,"Ġutredningen":2408,"Ġhelg":2409,"ĠfÃ¶nster":2410,"Ġmedier":2411,"Ġkostnad":2412,"fÃ¶rbundet":2413,"Ġcentral":2414,"Ġregel":2415,"Ġuppfattning":2416,"Ġmobil":2417,"ĠBl":2418,"Ġkraftigt":2419,"ĠkÃ¤nslor":2420,"Ġproblemet":2421,"ĠHÃ¶g":2422,"ĠEk":2423,"blad":2424,"Ġskada":2425,"Ġhunnit":2426,"ĠfÃ¶rÃ¤ndring":2427,"Ġordentligt":2428,"Ġhaha":2429,"opp":2430,"ĠFinns":2431,"ĠblÃ¥":2432,"Ġkommunala":2433,"Ġdator":2434,"ĠDÃ¤refter":2435,"Ġpersonalen":2436,"ĠÃ¤ndra":2437,"Ġtanken":2438,"Ġ2009":2439,"fÃ¶retag":2440,"ĠHenrik":2441,"han":2442,"Ãĸ":2443,"ann":2444,"ĠskÃ¤r":2445,"Ġfria":2446,"ĠST":2447,"ĠAnn":2448,"co":2449,"Ġmorgonen":2450,"ĠmÃ¥r":2451,"Ġbelopp":2452,"Ġdata":2453,"ĠSol":2454,"ningss":2455,"Ġsmak":2456,"Ġtecken":2457,"Ġimorgon":2458,"Ġ05":2459,"Ġhittat":2460,"ĠutstrÃ¤ckning":2461,"Ġreklam":2462,"Ġle":2463,"akt":2464,"Ġstarta":2465,"kv":2466,"ock":2467,"Ġtakt":2468,"under":2469,"anska":2470,"Ã¥d":2471,"Ġkompetens":2472,"Ġvarm":2473,"met":2474,"Ġpapper":2475,"Ġ07":2476,"Ġgemensamma":2477,"Ġlugnt":2478,"Ġsolen":2479,"ĠRa":2480,"ont":2481,"ĠfÃ¶reningen":2482,"tid":2483,"ĠvÃ¤ster":2484,"Ġvunnit":2485,"Ġbevis":2486,"Ġregn":2487,"ket":2488,"Ġdriver":2489,"ĠsÃ¶nder":2490,"Ġsvarta":2491,"ĠfÃ¶ll":2492,"Ġriktning":2493,"ĠsÃ¤llskap":2494,"ions":2495,"ĠfÃ¶rhÃ¥llanden":2496,"Ġledde":2497,"ert":2498,"ĠrÃ¤ttigheter":2499,"ull":2500,"ĠvÃ¤st":2501,"Ġpublik":2502,"Ġfungera":2503,"ĠsjÃ¶":2504,"res":2505,"bet":2506,"ĠnÃ¥n":2507,"ĠBÃ¥de":2508,"Ġty":2509,"ĠÃ¶ster":2510,"Ã¤m":2511,"ĠRo":2512,"Ġhantera":2513,"Ġtotal":2514,"Ġ38":2515,"Ġrakt":2516,"Ġfritt":2517,"Ġ03":2518,"verksamhet":2519,"Ġvisserligen":2520,"rÃ¥d":2521,"san":2522,"Ġkontakta":2523,"ĠgÃ¤ng":2524,"Ġpubliken":2525,"ĠhÃ¶rde":2526,"Ġtyst":2527,"Ġmiljon":2528,"ĠMikael":2529,"ĠinnehÃ¥ll":2530,"ĠQ":2531,"terna":2532,"ĠKarin":2533,"Ġsalt":2534,"ĠsÃ¤ljer":2535,"Ġpr":2536,"Ġplaner":2537,"Ġskett":2538,"erades":2539,"ĠtrÃ¤d":2540,"ĠrÃ¤knas":2541,"Ġekonomisk":2542,"Ã¤g":2543,"Ġjakt":2544,"Ġetc":2545,"Ġkriget":2546,"ĠmÃ¶tet":2547,"Ġsvenskar":2548,"lingen":2549,"Ġfinna":2550,"aten":2551,"Ġfredagen":2552,"ev":2553,"Ġtrevligt":2554,"Ġrisken":2555,"Ġdrag":2556,"Ġdejtingsajt":2557,"Ġledande":2558,"ĠdÃ¶rren":2559,"ĠAIK":2560,"ick":2561,"Ġpotatis":2562,"ĠfÃ¤rdig":2563,"Ġapp":2564,"ĠItalien":2565,"ĠVal":2566,"ĠMo":2567,"inn":2568,"Ġnedan":2569,"sÃ¥":2570,"Ġvind":2571,"ĠBer":2572,"ĠlÃ¶rdagen":2573,"ĠmÃ¶jliga":2574,"ĠanvÃ¤ndning":2575,"ĠÃ¥rige":2576,"Ġ2008":2577,"Ġstandard":2578,"ĠLennart":2579,"stid":2580,"Ġjordbruk":2581,"kon":2582,"Ã¤s":2583,"ĠRing":2584,"Ġoffentliga":2585,"ĠfÃ¶rÃ¤ndringar":2586,"Ġpositiv":2587,"Ġ42":2588,"Ġvinner":2589,"ĠfÃ¶ljde":2590,"ĠVissa":2591,"ind":2592,"ĠSer":2593,"ĠJu":2594,"igheten":2595,"Ġinsats":2596,"Ġkur":2597,"Ġlivsmedel":2598,"Ġmodell":2599,"Ġsatsa":2600,"ĠfÃ¶rmodligen":2601,"Ġresor":2602,"ĠÂ«":2603,"ĠTrakten":2604,"Ġnere":2605,"pris":2606,"Ġscen":2607,"Ġint":2608,"ĠIF":2609,"ĠhÃ¤star":2610,"Ġpatienter":2611,"Ġordet":2612,"Ġundvika":2613,"hÃ¥ll":2614,"ĠsjukvÃ¥rd":2615,"Ġmoderna":2616,"Ġinre":2617,"ĠsÃ¶ndagen":2618,"Ġkommunal":2619,"ĠGÃ¶teborgs":2620,"Ġtest":2621,"Ġarbets":2622,"ĠPa":2623,"lad":2624,"Ġloppet":2625,"Ġmarken":2626,"ĠfÃ¶rbÃ¤ttra":2627,"Ġjobbat":2628,"grupp":2629,"ĠPolisen":2630,"ĠInom":2631,"ĠfÃ¤ngelse":2632,"Ġdrift":2633,"ĠKa":2634,"ĠHe":2635,"Ġdelvis":2636,"Ġ02":2637,"Ġbeskriver":2638,"Ġhanden":2639,"Ġart":2640,"erande":2641,"Ġarbetat":2642,"ĠhÃ¤mta":2643,"ĠKon":2644,"ĠberÃ¤knas":2645,"SK":2646,"ĠsjÃ¶ng":2647,"sut":2648,"ĠfrÃ¥gar":2649,"Ġme":2650,"ĠSv":2651,"ĠsÃ¥ledes":2652,"Ġfrukost":2653,"Ġfinal":2654,"onen":2655,"Ġpositiva":2656,"let":2657,"ider":2658,"Ġpl":2659,"Ġlevande":2660,"ĠfÃ¶rsamling":2661,"ap":2662,"Ġdate":2663,"yg":2664,"ĠFÃ¥r":2665,"Ġkurs":2666,"splan":2667,"Ġnjuta":2668,"ona":2669,"Ġ37":2670,"ĠtillfÃ¤llen":2671,"Ġfantastiska":2672,"ĠÃħke":2673,"ĠlÃ¤kemedel":2674,"igare":2675,"Ġporn":2676,"ĠtrÃ¤dgÃ¥rd":2677,"arn":2678,"ĠjÃ¤tte":2679,"Ġbord":2680,"Ġstatliga":2681,"ĠbostÃ¤der":2682,"ioner":2683,"ĠfÃ¶rekommer":2684,"ĠMannen":2685,"ĠGe":2686,"Ġdesign":2687,"Ġomfattar":2688,"Ġenkla":2689,"fri":2690,"ĠlÃ¶sningar":2691,"ĠrÃ¶da":2692,"Ġslutar":2693,"Ġmyndigheter":2694,"Ġ2019":2695,"Ġeld":2696,"Ġkonstaterar":2697,"Ġskott":2698,"ĠRobert":2699,"sgatan":2700,"Ġskor":2701,"Ġ":2702,"ron":2703,"Ġfritid":2704,"Ġvardag":2705,"Ġprovinsen":2706,"ĠPris":2707,"ĠfÃ¶rfattare":2708,"ĠHel":2709,"ĠstÃ¤lle":2710,"ĠVilken":2711,"Ġ04":2712,"uk":2713,"Ġdriva":2714,"Ġosv":2715,"ĠvÃ¤nda":2716,"ismen":2717,"ĠgÃ¶teborg":2718,"ĠframgÃ¥r":2719,"Ġdr":2720,"Ġkonstigt":2721,"Ġraka":2722,"Ġradio":2723,"Ġrummet":2724,"Ġintill":2725,"Ġfrihet":2726,"Ġdollar":2727,"Ġkommunikation":2728,"ige":2729,"Ġvd":2730,"Ġ44":2731,"slaget":2732,"Ġtesta":2733,"Ġstycken":2734,"ĠvÃ¤r":2735,"Ġrespekt":2736,"ĠkÃ¶pt":2737,"ub":2738,"ĠLand":2739,"Ġnaturen":2740,"20":2741,"Ġtvingas":2742,"ĠTel":2743,"Ã¤t":2744,"ĠOr":2745,"Ġdog":2746,"ĠLite":2747,"omrÃ¥det":2748,"ligare":2749,"ĠlÃ¤s":2750,"Ġbidra":2751,"inen":2752,"ĠfrÃ¤msta":2753,"Ã¶j":2754,"Ġmotor":2755,"Ġat":2756,"Ġnyhet":2757,"ĠfÃ¶rsÃ¤kring":2758,"Ġregionen":2759,"skan":2760,"ĠgenomfÃ¶ra":2761,"ĠmotstÃ¥nd":2762,"Ġaktier":2763,"ĠnÃ¶dvÃ¤ndigt":2764,"ĠfÃ¶rsÃ¶kt":2765,"Ġyrkes":2766,"Ġfunktion":2767,"dagen":2768,"ĠFacebook":2769,"ĠvÃ¤rt":2770,"ĠTidigare":2771,"Ġfack":2772,"ĠomÃ¶jligt":2773,"ĠVÃ¥ra":2774,"Ġskit":2775,"Ġomedelbart":2776,"ĠvÃ¥gar":2777,"ink":2778,"Ġfrukt":2779,"ĠLena":2780,"Ġfamiljer":2781,"kad":2782,"Ġaktiv":2783,"ĠSand":2784,"Ġstrid":2785,"ĠDag":2786,"Ġvackert":2787,"ĠÃ¶gonen":2788,"Ġglada":2789,"ĠrÃ¤tten":2790,"ĠvÃ¤rsta":2791,"Ġframtida":2792,"Ġblommor":2793,"Ġgemensamt":2794,"Ġtom":2795,"ĠÃ¶l":2796,"gruppen":2797,"ĠidÃ©er":2798,"Ġfylla":2799,"ĠLÃ¤gg":2800,"ĠÃ¤mnen":2801,"Ġplast":2802,"Ġrecept":2803,"Ġrapport":2804,"Ġskaffa":2805,"ĠmÃ¥ng":2806,"Ġbodde":2807,"ec":2808,"du":2809,"ĠlÃ¥na":2810,"ĠKommer":2811,"Ġ600":2812,"Ġfaktum":2813,"Ġmord":2814,"Ġformer":2815,"Ġerfarenheter":2816,"ĠVÃ¤lkommen":2817,"Ġsaknas":2818,"Ġekonomiskt":2819,"ĠâĢĻ":2820,"Ġavsnitt":2821,"ĠkarriÃ¤r":2822,"arm":2823,"Ġbesked":2824,"ĠHennes":2825,"Ġkorta":2826,"Ġresan":2827,"ĠvÃ¤gar":2828,"vÃ¤g":2829,"Ġfordon":2830,"ĠfÃ¶remÃ¥l":2831,"ĠInnan":2832,"ĠRes":2833,"ĠTyvÃ¤rr":2834,"Ġvaror":2835,"frÃ¥gor":2836,"Ġbanan":2837,"ĠhÃ¶jd":2838,"ĠhÃ¤nger":2839,"Ġvuxen":2840,"Ġmej":2841,"Ġskriv":2842,"ĠfÃ¶rtroende":2843,"ĠmjÃ¶lk":2844,"Ġgjorts":2845,"Ġkall":2846,"ĠlÃ¤ste":2847,"Ã¶l":2848,"Ġtalade":2849,"snÃ¤mnden":2850,"Ġgift":2851,"fall":2852,"Ġlinje":2853,"ĠfÃ¶reslÃ¥r":2854,"ĠUtan":2855,"Ġverkligheten":2856,"Ġavseende":2857,"Ġsynes":2858,"Ġdesto":2859,"ĠEscort":2860,"Ġpassa":2861,"Ġinitiativ":2862,"Ġpartier":2863,"Ġgrunden":2864,"ĠÂ§":2865,"ĠsÃ¥nt":2866,"ĠfÃ¤rger":2867,"dan":2868,"len":2869,"ĠnÃ¥t":2870,"mÃ¥l":2871,"Ã¶t":2872,"ĠfÃ¶rening":2873,"ias":2874,"10":2875,"ĠReg":2876,"ĠvÃ¤rre":2877,"Ġomsorg":2878,"Ġordinarie":2879,"ĠFri":2880,"Ġbrist":2881,"svÃ¤gen":2882,"ĠLuleÃ¥":2883,"Ġkvm":2884,"Ġriksdag":2885,"ĠBro":2886,"ansen":2887,"ve":2888,"skar":2889,"ĠunderhÃ¥ll":2890,"Ġintressen":2891,"Ġplanen":2892,"Ġ<":2893,"Ġkol":2894,"Ġspara":2895,"ĠFor":2896,"Ġtorsdagen":2897,"Ġmaskin":2898,"IS":2899,"Ġdejtingsidor":2900,"somrÃ¥det":2901,"tag":2902,"Ġprova":2903,"Ġringde":2904,"ĠmÃ¥ndagen":2905,"Ġ39":2906,"lan":2907,"jÃ¶":2908,"ĠpremiÃ¤r":2909,"ĠFÃ¶rra":2910,"Ġlink":2911,"Ã¶st":2912,"ĠsÃ¤kra":2913,"ĠÃ¤gare":2914,"ĠFrÃ¥gan":2915,"ĠNils":2916,"ĠDock":2917,"Ġdiskutera":2918,"Ġsamling":2919,"Ġverket":2920,"Ġ48":2921,"Ġsvenskt":2922,"Ġprofessor":2923,"ny":2924,"band":2925,"Ġokej":2926,"ĠjÃ¤vla":2927,"sman":2928,"Ġfinans":2929,"ĠNÃ¤sta":2930,"Ġskatte":2931,"Ġrelation":2932,"anen":2933,"Ġsekunder":2934,"Ġtisdagen":2935,"ligheten":2936,"ĠrÃ¤nta":2937,"arbetet":2938,"NA":2939,"Ġfrisk":2940,"ĠsvÃ¥rare":2941,"Ġflickor":2942,"Ġgen":2943,"Ġsnabbare":2944,"Ġonsdagen":2945,"lande":2946,"Ġverktyg":2947,"Ġorganisationer":2948,"ĠvÃ¤xa":2949,"Ġtroligen":2950,"ĠMe":2951,"ĠframgÃ¥ng":2952,"Ã¤gare":2953,"Ġhann":2954,"Ġkallt":2955,"schef":2956,"ĠAnnars":2957,"Ġbruk":2958,"ĠfÃ¶ra":2959,"Ġavser":2960,"ĠHoppas":2961,"Ġ41":2962,"Ġadress":2963,"Ġtusen":2964,"IN":2965,"Ġbetydande":2966,"program":2967,"Ġdivision":2968,"uss":2969,"ĠVÃ¤sterÃ¥s":2970,"ila":2971,"larna":2972,"Ġtransport":2973,"ĠNor":2974,"ĠgrÃ¤nsen":2975,"Ġlik":2976,"istisk":2977,"ĠtrÃ¤ffade":2978,"ĠKultur":2979,"ĠkaraktÃ¤r":2980,"end":2981,"ĠdÃ¥liga":2982,"ĠnÃ¥r":2983,"Ġrekord":2984,"ĠGu":2985,"Ġ43":2986,"ĠTid":2987,"anter":2988,"ĠHall":2989,"Ġres":2990,"ĠSan":2991,"Ġovanligt":2992,"ass":2993,"ĠÃ¶ppnar":2994,"isen":2995,"Ġmaten":2996,"Ġtotala":2997,"Ġsannolikt":2998,"pr":2999,"ĠgÃ¤st":3000,"ĠtrÃ¤ffar":3001,"orp":3002,"eter":3003,"Ġvintern":3004,"red":3005,"Ġstopp":3006,"Ġkg":3007,"anta":3008,"vid":3009,"ĠinnebÃ¤ra":3010,"ĠtillvÃ¤xt":3011,"Ġperspektiv":3012,"Ġdejtingsajter":3013,"Ġsyster":3014,"ningens":3015,"Ġnytta":3016,"ĠBa":3017,"Ġhimla":3018,"ds":3019,"Ġhinner":3020,"ĠgÃ¤lla":3021,"ton":3022,"Ġminskar":3023,"ita":3024,"Ġluften":3025,"ĠSte":3026,"Ġskid":3027,"AT":3028,"ĠfÃ¶ddes":3029,"Ġpersonlig":3030,"Ġnorska":3031,"ĠbesÃ¶kare":3032,"ĠslÃ¤kt":3033,"one":3034,"Ġspelas":3035,"ial":3036,"Ã¤ra":3037,"Ã¶m":3038,"Ġam":3039,"Ġsocker":3040,"Ġreser":3041,"ĠslÃ¤ppa":3042,"Ġnaturligt":3043,"ĠVilket":3044,"ĠsmÃ¥ningom":3045,"ĠRom":3046,"sÃ¤ttning":3047,"ĠAndreas":3048,"Ġenklare":3049,"Ġinklusive":3050,"ĠutgÃ¥r":3051,"ĠbehÃ¥lla":3052,"sterna":3053,"Ġdubbel":3054,"ĠNorrkÃ¶ping":3055,"ĠFÃĸR":3056,"ari":3057,"Ġriktiga":3058,"Ġ2007":3059,"Ġvila":3060,"ĠnÃ¤t":3061,"ĠallmÃ¤nhet":3062,"ĠgÃ¥rd":3063,"Ġkor":3064,"ĠsÃ¤ngen":3065,"Ġbidrar":3066,"ĠallmÃ¤nt":3067,"iel":3068,"ĠÃ¶kning":3069,"Ġrygg":3070,"stjÃ¤nst":3071,"Ġpersonen":3072,"ĠuppmÃ¤rksamhet":3073,"ĠVilka":3074,"Ġspringa":3075,"ĠStad":3076,"Ġsilver":3077,"tra":3078,"sel":3079,"ĠhjÃ¤rta":3080,"ktionen":3081,"ĠlÃ¤rt":3082,"platsen":3083,"Ġminsta":3084,"ĠtÃ¤vlingen":3085,"ĠtjÃ¤nsten":3086,"Ġaktie":3087,"ĠstÃ¤llde":3088,"Ġdikt":3089,"ĠbestÃ¤mma":3090,"Ġpolitisk":3091,"chefen":3092,"ĠCo":3093,"Ġtrygghet":3094,"ore":3095,"tes":3096,"Ġback":3097,"Ġgemensam":3098,"ĠdÃ¶da":3099,"Ġ2006":3100,"ate":3101,"Ġ85":3102,"ĠÃĸster":3103,"Ġriskerar":3104,"Ãħ":3105,"ĠLinkÃ¶ping":3106,"ING":3107,"Ġvon":3108,"ĠTotalt":3109,"Ġgjordes":3110,"ĠGÃ¤vle":3111,"Ġkontrakt":3112,"Ġfaller":3113,"Ġ46":3114,"Ġredo":3115,"Ġintressanta":3116,"Ġanslag":3117,"Ġsnabba":3118,"Ġun":3119,"Ġstartar":3120,"nande":3121,"Ġeventuella":3122,"dom":3123,"Ġsyns":3124,"Ġ800":3125,"Ġort":3126,"Ġfamilje":3127,"eri":3128,"ĠmilitÃ¤r":3129,"Ġlek":3130,"ĠsÃ¥klart":3131,"ĠbrÃ¶d":3132,"kan":3133,"Ġsjukt":3134,"ĠlÃ¥ga":3135,"Ġdla":3136,"Ġtoppen":3137,"jen":3138,"ĠfÃ¶rklara":3139,"Ã¤ll":3140,"ĠansÃ¥g":3141,"ders":3142,"EL":3143,"Ġtittade":3144,"ĠCity":3145,"Ġwidoczny":3146,"Ġzalogowanych":3147,"Ġkommunerna":3148,"isering":3149,"ĠWest":3150,"stedt":3151,"ĠStorbritannien":3152,"Ġregeringens":3153,"Ġ06":3154,"samt":3155,"ĠrÃ¶ra":3156,"ĠSkog":3157,"drag":3158,"ĠBox":3159,"ley":3160,"Ġlade":3161,"Ġdefinitivt":3162,"Ġorkar":3163,"ĠTillsammans":3164,"ĠfÃ¶rlust":3165,"aga":3166,"ĠVolvo":3167,"ĠbesÃ¶ka":3168,"sjÃ¶":3169,"styrelsen":3170,"ĠArbet":3171,"Ġtor":3172,"Ġhistorien":3173,"Ġstyrka":3174,"ĠÃ¤ventyr":3175,"RA":3176,"ĠhushÃ¥ll":3177,"ĠnÃ¥gonstans":3178,"q":3179,"ĠhÃ¤rlig":3180,"Ġuppleva":3181,"Ġfil":3182,"unda":3183,"Ġkar":3184,"Ġintresserade":3185,"ĠpopulÃ¤ra":3186,"ella":3187,"Ġhuvudsakligen":3188,"laget":3189,"ĠfÃ¶retagen":3190,"Ġelev":3191,"Ã¤ck":3192,"ĠrejÃ¤lt":3193,"Ġmax":3194,"pel":3195,"for":3196,"ĠKjell":3197,"frÃ¥gan":3198,"Ġob":3199,"ĠbestÃ¤mde":3200,"ult":3201,"skor":3202,"ĠstÃ¤der":3203,"etten":3204,"Ġant":3205,"ĠnÃ¥tt":3206,"Ġkris":3207,"Ġspar":3208,"Ġmedia":3209,"skatt":3210,"Ġutrymme":3211,"pro":3212,"ĠgrundlÃ¤ggande":3213,"brott":3214,"Ġ1990":3215,"Ġnationella":3216,"Ġanslutning":3217,"ĠfÃ¶rklarade":3218,"Ġtogs":3219,"ora":3220,"ĠÃ¥riga":3221,"oll":3222,"eder":3223,"Ġhemmet":3224,"ĠmÃ¤ngder":3225,"Ġtycka":3226,"ĠkÃ¶ket":3227,"ĠNorr":3228,"ĠÃħrets":3229,"Ġhamnade":3230,"samma":3231,"ĠvÃ¤lkomna":3232,"ĠSamma":3233,"Ġregion":3234,"Ġsynpunkter":3235,"Ġvelat":3236,"ĠkÃ¤nslan":3237,"ĠavstÃ¥nd":3238,"ĠutlÃ¤ndska":3239,"ij":3240,"Ġtomt":3241,"ĠfÃ¶rlorade":3242,"Ġsiffror":3243,"Ġtrivs":3244,"Ġmajoritet":3245,"ĠIgÃ¥r":3246,"Ġing":3247,"ationerna":3248,"ĠIT":3249,"pet":3250,"iteten":3251,"Ġallvarligt":3252,"jan":3253,"Ġverklighet":3254,"Ġbi":3255,"ite":3256,"ank":3257,"Ġ{":3258,"ĠrÃ¶relse":3259,"Ġpratade":3260,"aler":3261,"stiden":3262,"eringar":3263,"ĠTom":3264,"Ġspelarna":3265,"ej":3266,"oo":3267,"Ġintervju":3268,"Ġeventuellt":3269,"ĠPlats":3270,"ĠtÃ¤nk":3271,"Ġdanska":3272,"ey":3273,"ĠSl":3274,"ĠutfÃ¶r":3275,"ĠstÃ¤llen":3276,"Ġutrustning":3277,"ĠhÃ¥l":3278,"strand":3279,"Ġkillar":3280,"Ġ52":3281,"ĠSvar":3282,"Ġpolitiskt":3283,"ĠEx":3284,"ĠmisstÃ¤nkt":3285,"Ġtydlig":3286,"oner":3287,"ĠvÃ¤ntas":3288,"Ġdeltagare":3289,"ĠfÃ¶rt":3290,"ĠIS":3291,"ĠvÃ¤lkommen":3292,"ĠSpanien":3293,"bok":3294,"Ġupplever":3295,"sch":3296,"Ġstoppa":3297,"ĠmiljÃ¶n":3298,"Ġskuld":3299,"Ġbekant":3300,"Ġkompis":3301,"ĠsÃ¤gs":3302,"ĠgÃ¤llde":3303,"ham":3304,"ĠPar":3305,"ĠvÃ¤xt":3306,"Ġkomm":3307,"ytt":3308,"ola":3309,"Ġroliga":3310,"ĠvÃ¤nder":3311,"tar":3312,"ĠHelt":3313,"Ġbel":3314,"ĠBÃ¥da":3315,"inna":3316,"Ġ47":3317,"hr":3318,"ĠTjejer":3319,"Ġmedborgare":3320,"Ġdenne":3321,"Ġbred":3322,"ĠÃ¶st":3323,"net":3324,"ĠLÃ¥ng":3325,"ĠÃĸst":3326,"Ġfinalen":3327,"Ġpromenad":3328,"arl":3329,"ĠrÃ¥":3330,"Ġlista":3331,"ĠHelsingborg":3332,"Ġera":3333,"ĠPaul":3334,"Ġ}":3335,"Ġ1980":3336,"vÃ¤r":3337,"ĠbrÃ¶st":3338,"stÃ¤llning":3339,"ĠÃ¶verallt":3340,"Ġbrittiska":3341,"Ġmar":3342,"ĠefterÃ¥t":3343,"Ġnoga":3344,"ĠgÃ¤ster":3345,"Ġkval":3346,"Ġcasino":3347,"Ġutomlands":3348,"Ġelva":3349,"ĠikvÃ¤ll":3350,"ĠGustav":3351,"Ġarbetade":3352,"Ġtvungen":3353,"anda":3354,"Ġbilderna":3355,"Ġanges":3356,"IT":3357,"bild":3358,"ĠstÃ¤mmer":3359,"Ġhandlade":3360,"Ġprocess":3361,"Ġsegern":3362,"ĠgrÃ¶na":3363,"Ġbredvid":3364,"Ġexport":3365,"Ġka":3366,"ĠTerrÃ¤ngen":3367,"ningsb":3368,"Ġkv":3369,"Ġtidning":3370,"ĠanmÃ¤lan":3371,"ry":3372,"ĠKvinnor":3373,"Ġlandslag":3374,"ĠallmÃ¤nheten":3375,"Ġ250":3376,"ĠSyd":3377,"ĠlÃ¤genheter":3378,"Ġplocka":3379,"ĠsÃ¤ng":3380,"ĠbestÃ¤mmelser":3381,"ĠbedÃ¶mning":3382,"ĠStig":3383,"unt":3384,"Ġstatistik":3385,"Ġkallad":3386,"ĠstrÃ¶m":3387,"ĠHÃ¥kan":3388,"Ġupplevelse":3389,"ÃĦ":3390,"40":3391,"Ġandel":3392,"Ġbehovet":3393,"ica":3394,"skola":3395,"Ġrolig":3396,"OL":3397,"ĠutÃ¶ver":3398,"Ġnyheter":3399,"led":3400,"gÃ¥ngen":3401,"Ġextremt":3402,"ĠsmÃ¶r":3403,"Ġformen":3404,"Ġklassiska":3405,"ust":3406,"Ġflicka":3407,"ĠskÃ¶n":3408,"Ġkvinnliga":3409,"Ġ1970":3410,"ĠinkÃ¶p":3411,"ĠGo":3412,"ĠtrÃ¤nar":3413,"Ã¥rd":3414,"Ġsov":3415,"Ġbollen":3416,"Ġkamp":3417,"ĠWe":3418,"ph":3419,"ly":3420,"ĠCarlsson":3421,"ĠnÃ¤st":3422,"ĠKar":3423,"Ġdebatten":3424,"Ġet":3425,"ĠLO":3426,"Ġyou":3427,"Ġpol":3428,"Ġhandlingar":3429,"ĠrÃ¶sta":3430,"pat":3431,"Ġeskort":3432,"ĠMÃ¥l":3433,"ĠmÃ¶ten":3434,"ĠangÃ¥ende":3435,"ĠlÃ¤nderna":3436,"ĠfÃ¤rre":3437,"Ġ54":3438,"sÃ¶":3439,"Ġundervisning":3440,"ĠmÃ¶nster":3441,"Ġsynd":3442,"ningsfÃ¶r":3443,"rande":3444,"Ġ59":3445,"varande":3446,"Ġforskare":3447,"lingar":3448,"ĠPrecis":3449,"Ġdjup":3450,"ĠuppÃ¥t":3451,"iens":3452,"ĠfÃ¶rsvann":3453,"Ġmetod":3454,"ĠVÃ¤xjÃ¶":3455,"Ġ49":3456,"ĠDan":3457,"Ġklassen":3458,"ĠtillgÃ¤ngliga":3459,"ĠMark":3460,"ĠmÃ¤nnen":3461,"Ġsant":3462,"Ġryggen":3463,"ĠHolm":3464,"Ġstudent":3465,"Ġtexten":3466,"Ġskiljer":3467,"Ġscenen":3468,"ĠMax":3469,"oss":3470,"Ġlandsting":3471,"ĠMalm":3472,"Ġskydda":3473,"af":3474,"Ġjobbigt":3475,"illa":3476,"Ġost":3477,"ĠbestÃ¤mmer":3478,"ĠgÃ¥rden":3479,"Ġegendom":3480,"Ġmod":3481,"ĠbetrÃ¤ffande":3482,"ĠlÃ¤ns":3483,"ningsm":3484,"ikt":3485,"ĠlÃ¤ngst":3486,"Ġthai":3487,"Ġmun":3488,"ko":3489,"ĠfÃ¶rsvinner":3490,"ya":3491,"ĠCar":3492,"ĠhÃ¥lls":3493,"Ġad":3494,"Ġdistrikt":3495,"ĠVÃ¤stra":3496,"ĠhÃ¤vdar":3497,"ĠnÃ¶d":3498,"ĠsjÃ¶n":3499,"Ġanalys":3500,"Ġdetaljer":3501,"fÃ¶rening":3502,"Ġinslag":3503,"Ġdeltog":3504,"ĠÃ¶n":3505,"Ġminne":3506,"ĠkÃ¶rt":3507,"ĠframÃ¶ver":3508,"ĠbÃ¤ra":3509,"olog":3510,"ĠHos":3511,"film":3512,"ĠHag":3513,"ĠfÃ¶rhand":3514,"ĠfÃ¶rb":3515,"SS":3516,"Ġstyrelse":3517,"ĠAd":3518,"Ġfika":3519,"ĠSm":3520,"vs":3521,"staden":3522,"Ġaktivt":3523,"Ġlust":3524,"ĠrÃ¶ster":3525,"etter":3526,"ĠÃĦ":3527,"ares":3528,"Ġkonto":3529,"ĠframfÃ¶rallt":3530,"Ġutl":3531,"ĠnÃ¶jda":3532,"hand":3533,"Ġtunga":3534,"Ġit":3535,"ĠsÃ¥n":3536,"ĠLeif":3537,"ĠLag":3538,"Ġaning":3539,"Ġengagemang":3540,"ĠsÃ¥lunda":3541,"atan":3542,"ĠlÃ¥tar":3543,"ĠmÃ¥tt":3544,"Ġrena":3545,"uv":3546,"Ġmag":3547,"ura":3548,"Ġ2020":3549,"elserna":3550,"dar":3551,"ĠutstÃ¤llning":3552,"Ġlitteratur":3553,"ĠKÃ¶p":3554,"ĠJesus":3555,"Ġstarkare":3556,"ĠSundsvall":3557,"ula":3558,"Ġdejtingsida":3559,"ĠSal":3560,"ĠVet":3561,"ĠÃ¶stra":3562,"Ġdrabbas":3563,"ĠSÃ¶dra":3564,"Ġavgift":3565,"lÃ¶s":3566,"Ġhav":3567,"ĠSc":3568,"iz":3569,"Ġdjupt":3570,"ĠVÃ¥rt":3571,"ĠanstÃ¤llning":3572,"ĠGamla":3573,"Ġlistan":3574,"ĠMat":3575,"Ġeuropeiska":3576,"vÃ¤rde":3577,"Ġhud":3578,"ess":3579,"tr":3580,"Ġbehandlas":3581,"klass":3582,"Ġnyss":3583,"Ġsmitt":3584,"Ġkombination":3585,"iske":3586,"ĠBor":3587,"Ã¥ren":3588,"ĠhÃ¤rligt":3589,"Ã¤st":3590,"Ġfemte":3591,"ĠJÃ¶nkÃ¶ping":3592,"Ġvice":3593,"Ġhr":3594,"ĠGustaf":3595,"ĠtrÃ¥kigt":3596,"ĠstÃ¥l":3597,"ĠRed":3598,"Ġskedde":3599,"Ġhinder":3600,"Ġbloggen":3601,"Ġsy":3602,"ĠVÃ¤l":3603,"Ġhandling":3604,"ĠInget":3605,"SA":3606,"Ġmetoder":3607,"kten":3608,"ĠÃ¥sikter":3609,"mannen":3610,"rÃ¤tten":3611,"ĠPettersson":3612,"Ġoffentlig":3613,"ĠMichael":3614,"ĠmÃ¤nskliga":3615,"Ġnormal":3616,"Ġhal":3617,"Ġtalman":3618,"hn":3619,"Ġfara":3620,"ĠSara":3621,"Ġhundar":3622,"Ġbryta":3623,"Ġkontakter":3624,"LL":3625,"Ġuppger":3626,"resa":3627,"ĠhjÃ¤rtat":3628,"Ġsjukhuset":3629,"har":3630,"klubb":3631,"Ġmagen":3632,"Ġstannar":3633,"kort":3634,"Ġfann":3635,"ĠtrÃ¤ffas":3636,"Ġstadens":3637,"Ġkron":3638,"Ġwebbplats":3639,"Ġfakta":3640,"spelare":3641,"heter":3642,"Ġhelhet":3643,"pan":3644,"Ġallting":3645,"ĠBorÃ¥s":3646,"ĠEm":3647,"Ġomfattning":3648,"Ġeffektivt":3649,"Ġspeciella":3650,"Ġstrand":3651,"Ġhalvlek":3652,"AG":3653,"dagar":3654,"ĠgrÃ¶n":3655,"Ġ2005":3656,"Ġ95":3657,"Ġbutiker":3658,"Ġdricka":3659,"ĠOlle":3660,"Ġgenast":3661,"Ġbibliotek":3662,"orer":3663,"org":3664,"ĠsjÃ¤l":3665,"iten":3666,"Ġplanering":3667,"Ġtung":3668,"Ġsprang":3669,"ende":3670,"Ġbud":3671,"Ġansvaret":3672,"ĠAntalet":3673,"ĠÃ¤renden":3674,"Ġkortare":3675,"ĠhÃ¥rda":3676,"ĠdÃ¤rifrÃ¥n":3677,"skapet":3678,"Ġcivil":3679,"ĠHuvud":3680,"Ġrock":3681,"ĠstÃ¥tt":3682,"AS":3683,"ĠrÃ¶k":3684,"Ġinflytande":3685,"ppen":3686,"Ġdiskussion":3687,"utt":3688,"ĠhÃ¤nga":3689,"Ġaktiva":3690,"ĠBlir":3691,"Ġfixa":3692,"sav":3693,"Ġgrann":3694,"ĠMina":3695,"Ġfinansiella":3696,"Ġlov":3697,"ĠHam":3698,"ĠvÃ¤":3699,"her":3700,"Ġpraktiskt":3701,"elt":3702,"Ġdatorn":3703,"Ġgolvet":3704,"Ġspets":3705,"ĠÃ¶ppnade":3706,"rarna":3707,"rÃ¥":3708,"Ġpaket":3709,"platser":3710,"Ġskapat":3711,"Ġorganisationen":3712,"orm":3713,"Ġreserv":3714,"dem":3715,"Ġstolt":3716,"Ġstress":3717,"Ġblott":3718,"ĠfÃ¶rord":3719,"ĠKr":3720,"our":3721,"Ġ99":3722,"ĠmÃ¤nniskan":3723,"ĠfÃ¶regÃ¥ende":3724,"Ġgl":3725,"ack":3726,"ĠvÃ¤xte":3727,"pe":3728,"Ġ700":3729,"11":3730,"ĠutfÃ¶ra":3731,"30":3732,"ĠkÃ¤r":3733,"ĠInternet":3734,"Ġbalans":3735,"ĠnÃ¤tverk":3736,"ĠtillfÃ¤llet":3737,"Ġsh":3738,"ĠOl":3739,"ĠdÃ¶":3740,"ĠfÃ¶ljt":3741,"Ġkant":3742,"vÃ¤rd":3743,"Ġdatum":3744,"Ġ1000":3745,"cka":3746,"Ġmass":3747,"ĠsvÃ¥righeter":3748,"ĠÃ¶nskemÃ¥l":3749,"ansk":3750,"Ġsim":3751,"ssystem":3752,"Ġlyfta":3753,"Ġstatens":3754,"Ġsammanlagt":3755,"Ġmedicin":3756,"ĠBy":3757,"Ġplatt":3758,"ĠutslÃ¤pp":3759,"gas":3760,"ĠVD":3761,"Ġpraktiken":3762,"Ġkyrk":3763,"Ġtidningar":3764,"ĠsÃ¤r":3765,"Ã¤nk":3766,"Ġem":3767,"ira":3768,"ĠVis":3769,"Ġmode":3770,"Ġkatt":3771,"Ġkostnaderna":3772,"Ġminnes":3773,"ĠKanada":3774,"ĠNyheter":3775,"ĠCa":3776,"ivt":3777,"lik":3778,"ministern":3779,"ĠhÃ¶ja":3780,"ĠRam":3781,"Ġgatan":3782,"ĠAlexander":3783,"anten":3784,"Ġlagom":3785,"Ġolja":3786,"komm":3787,"Ġsituationer":3788,"ĠjÃ¤rn":3789,"Ġamerikansk":3790,"Ġ1800":3791,"ĠNorra":3792,"ĠKonst":3793,"vall":3794,"ĠGod":3795,"lagen":3796,"Ġhyra":3797,"Ġ53":3798,"Ã¤ngen":3799,"Ġlagar":3800,"bolaget":3801,"ĠDeras":3802,"Ġinfo":3803,"Ġinternationell":3804,"far":3805,"Ġbutiken":3806,"Ġchoklad":3807,"Ġred":3808,"Ġvakt":3809,"ini":3810,"ĠStrÃ¶m":3811,"ringar":3812,"ĠÃ¤mnet":3813,"ĠhÃ¤ndelser":3814,"ledare":3815,"Ġbest":3816,"EJ":3817,"ĠÃ¤lskade":3818,"vÃ¤rlden":3819,"bolag":3820,"Ġorgan":3821,"enter":3822,"Ġdamer":3823,"ĠÃĦndÃ¥":3824,"Ġloss":3825,"Ġaktivitet":3826,"kel":3827,"OM":3828,"atet":3829,"Ã¤rt":3830,"ĠSport":3831,"Ġfunkar":3832,"Ġsamla":3833,"ĠfÃ¶rÃ¤ldrarna":3834,"Ġplanerar":3835,"Ġverkade":3836,"Ġsverige":3837,"Ġfundera":3838,"hall":3839,"Ġpolitiken":3840,"ĠvÃ¤dret":3841,"ĠEmma":3842,"ĠTror":3843,"ĠBen":3844,"ĠfÃ¶rutsÃ¤ttning":3845,"Ġorden":3846,"ĠlÃ¤sare":3847,"ĠMusik":3848,"Ġ56":3849,"Ġegenskaper":3850,"Ġflyttar":3851,"ĠTim":3852,"ĠÃ¶gonblick":3853,"Ġso":3854,"Ġeffektiv":3855,"Ġfartyg":3856,"ĠIsrael":3857,"Ġsjuka":3858,"Ġting":3859,"Ġverkliga":3860,"Ġupplysningar":3861,"ĠstÃ¥nd":3862,"Ġlast":3863,"Ġposition":3864,"kvist":3865,"Ġdi":3866,"ĠLÃ¶fven":3867,"Ġhellre":3868,"ĠanvÃ¤nt":3869,"bud":3870,"skog":3871,"Ġutomhus":3872,"ĠtvÃ¤rtom":3873,"sar":3874,"Ġminut":3875,"arbetare":3876,"ĠÃ¥ring":3877,"lÃ¶sa":3878,"0":3879,"ĠVer":3880,"Ġtrygg":3881,"Ġansiktet":3882,"Ġskickar":3883,"Ġdygn":3884,"Ġpekar":3885,"ĠEuro":3886,"Ġutsikt":3887,"19":3888,"Ġslipper":3889,"ĠEN":3890,"EM":3891,"ĠlÃ¤ngd":3892,"Ġminskat":3893,"ĠhÃ¶lls":3894,"ĠvÃ¤ntade":3895,"sprogram":3896,"Ġbarnbarn":3897,"bro":3898,"Ã¶g":3899,"Ġslagit":3900,"ĠuppstÃ¥r":3901,"Ġflytt":3902,"ino":3903,"Ġco":3904,"Ġtypen":3905,"Ġstannade":3906,"Ã¶sa":3907,"Ġbefolkningen":3908,"sre":3909,"ĠstÃ¤llt":3910,"Ġhalva":3911,"ĠLill":3912,"Ġteam":3913,"Ġmodeller":3914,"Ġstarten":3915,"ĠFram":3916,"Ġprofil":3917,"bor":3918,"ĠCon":3919,"ĠÃ¤":3920,"ĠintrÃ¤ffade":3921,"ĠjÃ¤m":3922,"ĠBygg":3923,"mor":3924,"Ġ64":3925,"ĠRegion":3926,"ĠvÃ¥rden":3927,"nes":3928,"Ġunderbara":3929,"arbet":3930,"skr":3931,"Ġlin":3932,"lare":3933,"Ġansvarig":3934,"Ġmotsvarar":3935,"ĠvÃ¤stra":3936,"Ġnord":3937,"Ġtydliga":3938,"ĠÃ¥terstÃ¥r":3939,"ich":3940,"full":3941,"Ġflertal":3942,"Ġ2004":3943,"Ġpaus":3944,"Ġag":3945,"Ġmusiken":3946,"Ġbott":3947,"ca":3948,"ĠrÃ¶rande":3949,"Ġiaf":3950,"ĠlÃ¤net":3951,"ĠÃ¥tal":3952,"ĠArne":3953,"Ġsms":3954,"ĠsvÃ¤ng":3955,"ĠMassage":3956,"ĠfÃ¶rdelar":3957,"ED":3958,"ĠvÃ¤ntat":3959,"ure":3960,"ĠFick":3961,"ĠKÃ¶penhamn":3962,"Ġbror":3963,"Ġlaga":3964,"banan":3965,"ĠBorg":3966,"Ġ57":3967,"12":3968,"ensen":3969,"Ġkonkurrens":3970,"ĠBill":3971,"ĠÃ¥terigen":3972,"ĠSund":3973,"barn":3974,"Ġhette":3975,"Ġhoppa":3976,"bÃ¤r":3977,"ĠofÃ¶r":3978,"Ġhamn":3979,"ĠlÃ¤genheten":3980,"Ġslippa":3981,"Ġsid":3982,"ĠbesvÃ¤r":3983,"Ġvarma":3984,"ĠjÃ¤rnvÃ¤g":3985,"Ġkung":3986,"Ġsoffan":3987,"ologi":3988,"Ġbussen":3989,"Ġsj":3990,"gi":3991,"ĠHer":3992,"Ġleta":3993,"ĠmÃ¶tte":3994,"ĠTomas":3995,"Ġmenade":3996,"Ġutnyttja":3997,"Ġban":3998,"ktion":3999,"still":4000,"skott":4001,"Ġduktig":4002,"off":4003,"ille":4004,"ĠmedfÃ¶r":4005,"Ġ1960":4006,"Ã¤nt":4007,"ĠDal":4008,"Ġunderbart":4009,"Ġskratt":4010,"ĠtillÃ¤gg":4011,"Ġdigitala":4012,"Ġytterst":4013,"ĠNa":4014,"Ġutbud":4015,"Ġlett":4016,"Ġlegat":4017,"Ġfasta":4018,"ĠGÃ¥":4019,"Ġmoder":4020,"Ġ58":4021,"ĠBritt":4022,"ĠlÃ¥gt":4023,"Ġrollerna":4024,"stÃ¤ll":4025,"Ġtradition":4026,"Ġ51":4027,"ĠjÃ¤mfÃ¶relse":4028,"Ġna":4029,"ĠEmil":4030,"ilj":4031,"anna":4032,"Ġ120":4033,"ĠstÃ¤lls":4034,"Ġ73":4035,"Ã¥tt":4036,"ĠRegeringen":4037,"Ġtufft":4038,"ĠDÃ¤rmed":4039,"grupper":4040,"ox":4041,"ĠfÃ¶rstod":4042,"aden":4043,"bilder":4044,"gÃ¶r":4045,"Ġbilligare":4046,"verksamheten":4047,"Ġkommentarer":4048,"ystem":4049,"Ġrikt":4050,"ĠberÃ¶r":4051,"ĠfÃ¶rfattaren":4052,"Ġsvaret":4053,"Ġkristna":4054,"ĠKarlstad":4055,"Ġsingel":4056,"Ġspeciell":4057,"60":4058,"Ġenhet":4059,"oj":4060,"ĠjÃ¤ttebra":4061,"Ġavtalet":4062,"Ġpraktiska":4063,"Ġbyggt":4064,"ES":4065,"ĠWall":4066,"ĠSpel":4067,"Ġunika":4068,"Ġrepresentanter":4069,"ĠRik":4070,"ĠKungl":4071,"Ġdyker":4072,"NING":4073,"ish":4074,"Ġflykting":4075,"skÃ¤r":4076,"ĠgrÃ¤nser":4077,"ĠArbetet":4078,"Ġstranden":4079,"ĠHus":4080,"Ġtax":4081,"Ġev":4082,"Ġdelas":4083,"ĠBertil":4084,"ĠÃ¤kta":4085,"Ġavdelning":4086,"ĠGotland":4087,"ĠfÃ¶rstÃ¥else":4088,"ĠvÃ¤nde":4089,"ĠOla":4090,"ĠGa":4091,"ĠfÃ¶rhÃ¶r":4092,"ĠPorn":4093,"ĠÃ¤ga":4094,"ĠMor":4095,"Ġkonsekvenser":4096,"ĠHell":4097,"Ġarbetsgivare":4098,"Ġteknisk":4099,"ĠFilm":4100,"Ġskickas":4101,"ĠfrÃ¥gorna":4102,"Ġmyndighet":4103,"pass":4104,"Ġarbetsuppgifter":4105,"ĠJonsson":4106,"70":4107,"reg":4108,"Ġjobbade":4109,"Ġakt":4110,"alm":4111,"Ġmisstag":4112,"ĠmÃ¶jligen":4113,"ĠMattias":4114,"ĠHalmstad":4115,"ĠaffÃ¤rer":4116,"dal":4117,"spÃ¥r":4118,"Ġekonomin":4119,"ĠsÃ¶kte":4120,"po":4121,"Ġsexiga":4122,"innan":4123,"smÃ¥l":4124,"sidan":4125,"Ġol":4126,"ĠfÃ¶rlorat":4127,"ĠtjÃ¤na":4128,"Ġpartierna":4129,"Ġma":4130,"Ġkilo":4131,"ĠSuper":4132,"Ġbeteende":4133,"ĠRÃ¤tt":4134,"Ġsovrum":4135,"Ġkurser":4136,"ppa":4137,"stÃ¶d":4138,"ĠSocialdemokraterna":4139,"Ġbonus":4140,"ĠTommy":4141,"bruk":4142,"Ġund":4143,"ĠsÃ¶kt":4144,"Ġfira":4145,"ĠTro":4146,"iter":4147,"Ġombord":4148,"Ġskick":4149,"ĠEric":4150,"Ġmjuk":4151,"sak":4152,"Ġoberoende":4153,"ĠÃ¤rendet":4154,"Ġnaturliga":4155,"Ġintryck":4156,"qu":4157,"Ġdejt":4158,"Ġlant":4159,"departementet":4160,"Ġytter":4161,"ĠTe":4162,"Ġintresset":4163,"bel":4164,"ĠSÃ¶k":4165,"50":4166,"Ġknulla":4167,"Ġrest":4168,"Ġbio":4169,"sstyrelsen":4170,"Ġsur":4171,"ager":4172,"kat":4173,"bi":4174,"Ġolje":4175,"Ġok":4176,"samhet":4177,"Ġfran":4178,"Ġbjuda":4179,"Ġbeslutat":4180,"ĠbjÃ¶d":4181,"ĠSimon":4182,"ĠSkriv":4183,"Ġdisk":4184,"Ġsonen":4185,"shus":4186,"Ġtuff":4187,"ĠFa":4188,"ĠMarcus":4189,"Ġfett":4190,"yk":4191,"ĠChrister":4192,"Ã¤kt":4193,"ĠnÃ¤mnda":4194,"Ġmo":4195,"quist":4196,"dat":4197,"Ġkommentar":4198,"Ġladda":4199,"Ġhinna":4200,"Ġavl":4201,"Ġsnygg":4202,"Ġmakten":4203,"uren":4204,"Ġek":4205,"kta":4206,"Ġkonstatera":4207,"bilar":4208,"politik":4209,"sc":4210,"ĠfÃ¶rbund":4211,"ĠLeague":4212,"Ġz":4213,"ĠFem":4214,"Ġnational":4215,"dahl":4216,"Ġfyr":4217,"ĠDjurgÃ¥rden":4218,"aget":4219,"Ġutbildningen":4220,"Ġfabrik":4221,"Ġverka":4222,"ĠhÃ¤lso":4223,"ygg":4224,"ĠLisa":4225,"Ġinspiration":4226,"Ġstilla":4227,"ue":4228,"ĠÃ¤ndringar":4229,"ĠMy":4230,"Ġstyra":4231,"ĠDi":4232,"atta":4233,"Ġsvag":4234,"ĠQu":4235,"Ġrelationer":4236,"Ġgrov":4237,"ĠAlltsÃ¥":4238,"Ġhumor":4239,"Ġinternationellt":4240,"Ġliter":4241,"Ġ67":4242,"Ġkam":4243,"Ġinser":4244,"Ġdeltar":4245,"ĠGran":4246,"Ġkrafter":4247,"istiskt":4248,"ĠsÃ¶mn":4249,"Ġlive":4250,"ĠKo":4251,"Ġnyckel":4252,"Ġursprung":4253,"Ġboll":4254,"aste":4255,"ĠBet":4256,"ĠskÃ¶t":4257,"Ġsamlade":4258,"Ġverksamheter":4259,"ral":4260,"ĠâĢĶ":4261,"ee":4262,"ĠFree":4263,"Ġ66":4264,"Ġfunktioner":4265,"Ġringer":4266,"ĠPark":4267,"Ġorder":4268,"Ġsorg":4269,"ĠDels":4270,"Ġbyn":4271,"ĠKn":4272,"Ġkompisar":4273,"Ġvarv":4274,"fÃ¶reningen":4275,"Ġstorm":4276,"igheter":4277,"ĠMP":4278,"Ġtim":4279,"Ġcancer":4280,"Ġbordet":4281,"ĠVÃ¤lj":4282,"Ġdistans":4283,"Ġnoll":4284,"vi":4285,"Ġfinska":4286,"ĠEskilstuna":4287,"ĠÃ¤mne":4288,"ĠtrÃ¤naren":4289,"ĠKarlskrona":4290,"erats":4291,"ĠTur":4292,"ĠÃ¤ndring":4293,"Ġreglerna":4294,"Ġsatsar":4295,"ire":4296,"Ġskillnaden":4297,"ĠOscar":4298,"Ġframme":4299,"Ġunderbar":4300,"ĠledamÃ¶ter":4301,"Ġfunderar":4302,"ĠavgÃ¶ra":4303,"Ġenlighet":4304,"Ġindivider":4305,"ĠhÃ¤nderna":4306,"Ġhockey":4307,"Ġ63":4308,"ĠKung":4309,"Ġaktuell":4310,"ĠSjÃ¶":4311,"Ġtraditionella":4312,"ale":4313,"Ġkvinnorna":4314,"rÃ¤":4315,"ĠLake":4316,"Ġrestauranger":4317,"Ġnordiska":4318,"Ġpartner":4319,"ĠInfÃ¶r":4320,"Ġroman":4321,"Ã¤v":4322,"ĠJapan":4323,"Ġpassade":4324,"Ġboka":4325,"Ġerbjudanden":4326,"Ġdum":4327,"Ġartiklar":4328,"Ġ72":4329,"ĠUr":4330,"ĠhÃ¤sten":4331,"Ġborgerliga":4332,"mÃ¤n":4333,"ĠBÃ¤sta":4334,"ĠTo":4335,"les":4336,"Ġlyssnar":4337,"eta":4338,"Ġgrav":4339,"ĠskÃ¶ter":4340,"Ġarg":4341,"mo":4342,"ĠinstÃ¤llning":4343,"ĠjÃ¤mfÃ¶r":4344,"ĠhÃ¤rliga":4345,"ĠlÃ¶rdags":4346,"orten":4347,"ĠDig":4348,"ĠMon":4349,"utbildning":4350,"ĠLasse":4351,"Ġ78":4352,"Ġinf":4353,"Ġberedd":4354,"ĠutgÃ¥ng":4355,"ct":4356,"ĠBerlin":4357,"RO":4358,"ĠkÃ¶rning":4359,"ĠÃ¤ndamÃ¥l":4360,"Ġlog":4361,"Ã¥riga":4362,"ĠhÃ¥llit":4363,"Ġunderlag":4364,"Ã¤ren":4365,"RESS":4366,"Ġstabil":4367,"ĠfullstÃ¤ndigt":4368,"Ġforsknings":4369,"ĠtÃ¥get":4370,"Ã¤der":4371,"steg":4372,"Ġpop":4373,"ĠgrÃ¥":4374,"ĠNe":4375,"ĠRÃ¶r":4376,"bÃ¤ck":4377,"Ġdetalj":4378,"Ġov":4379,"Ġcor":4380,"fs":4381,"ĠtÃ¤vlingar":4382,"ĠFF":4383,"Ġletar":4384,"ĠhÃ¤ndelse":4385,"ĠdÃ¶r":4386,"ĠMalin":4387,"Ġhustru":4388,"ĠSn":4389,"start":4390,"Ġgifta":4391,"ĠNo":4392,"ĠpÃ¥gÃ¥ende":4393,"ond":4394,"rakt":4395,"Ġstudenter":4396,"Ġeftermiddag":4397,"out":4398,"ork":4399,"ĠbegÃ¤r":4400,"holms":4401,"Ġblock":4402,"ĠfÃ¶rklaring":4403,"Ã¶p":4404,"Ġfre":4405,"Ġbransch":4406,"ĠjÃ¤mn":4407,"Ġkontrollera":4408,"problem":4409,"blom":4410,"partiet":4411,"Ġinriktning":4412,"minister":4413,"Ġheta":4414,"Ġproblemen":4415,"Ġbadrum":4416,"Ġkniv":4417,"Ġ69":4418,"Ġsuttit":4419,"Ġsjunger":4420,"za":4421,"Ġregerings":4422,"ii":4423,"Ġtra":4424,"ĠhjÃ¤rt":4425,"Ġinvesteringar":4426,"Ġlarm":4427,"ĠOCH":4428,"ĠAnton":4429,"kn":4430,"Ġfaktorer":4431,"Ġsand":4432,"Ġtusentals":4433,"Ġtrafiken":4434,"ĠTrump":4435,"ĠhÃ¥ret":4436,"ĠmÃ¶rk":4437,"ĠSw":4438,"ringen":4439,"Ġhunden":4440,"Ġutsatta":4441,"Ġout":4442,"Ġbenen":4443,"Ġoff":4444,"Ġmyndigheterna":4445,"ĠGustafsson":4446,"ĠfÃ¤rd":4447,"ĠJansson":4448,"ĠMal":4449,"ĠslÃ¤pper":4450,"Ġrekommenderar":4451,"ĠglÃ¶mma":4452,"Ġpojkar":4453,"Ġekonom":4454,"tern":4455,"ĠSovjet":4456,"rev":4457,"Ġavgifter":4458,"Ġgeneral":4459,"Ġtalat":4460,"Ġsorts":4461,"rin":4462,"makt":4463,"raf":4464,"Ġreg":4465,"Ġhttp":4466,"Ġallvarliga":4467,"Ġansikte":4468,"Ġvilla":4469,"somrÃ¥de":4470,"eden":4471,"Ġstycket":4472,"Ġras":4473,"ĠResultatet":4474,"ĠanhÃ¶riga":4475,"Ġuppl":4476,"Z":4477,"ĠmarknadsfÃ¶ring":4478,"Ġtungt":4479,"Ġbrister":4480,"ho":4481,"Ġbilligt":4482,"Ġslutligen":4483,"ĠRadio":4484,"Ġinstrument":4485,"Ġbranschen":4486,"Ġavlidit":4487,"ford":4488,"Ġislam":4489,"ĠupptÃ¤cka":4490,"ĠhÃ¤ls":4491,"Ġmatcherna":4492,"Ġnegativa":4493,"Ġplacering":4494,"ĠPl":4495,"Ġskapade":4496,"fart":4497,"Ġledig":4498,"Ġeuro":4499,"ĠentrÃ©":4500,"Ġhotellet":4501,"Ġavled":4502,"chen":4503,"ĠnordvÃ¤st":4504,"ĠtrÃ¤ffat":4505,"ĠtingsrÃ¤tt":4506,"Ġmy":4507,"ĠtvÃ¤tt":4508,"Ġbyggnader":4509,"Ġfarligt":4510,"ĠsprÃ¥ket":4511,"we":4512,"Ġtids":4513,"Ġerin":4514,"Ġplanet":4515,"ĠsydvÃ¤st":4516,"ĠlÃ¤mplig":4517,"atur":4518,"Ġsyskon":4519,"Ġyttre":4520,"ix":4521,"ĠfÃ¶rÃ¤ndras":4522,"ĠfrÃ¤mmande":4523,"000":4524,"ĠMellan":4525,"ris":4526,"vÃ¤l":4527,"Ġhy":4528,"Ġnot":4529,"IF":4530,"Ġkonkurs":4531,"sproblem":4532,"vatten":4533,"ĠmÃ¤nniskors":4534,"ĠuppfÃ¶r":4535,"ogen":4536,"Ġhet":4537,"ĠNÃ¤rmaste":4538,"ĠMedan":4539,"Ġkapacitet":4540,"Ġsamlas":4541,"nan":4542,"Ġfastigheten":4543,"Ġ900":4544,"spolitik":4545,"ĠfÃ¶rmÃ¥n":4546,"Ġversion":4547,"Ġkonsert":4548,"Ġtaket":4549,"ĠFar":4550,"Ġklipp":4551,"smÃ¤n":4552,"Ġfrakt":4553,"ĠtvÃ¥a":4554,"Ġkampen":4555,"ĠArt":4556,"yck":4557,"ĠbrÃ¶llop":4558,"ĠHÃ¶r":4559,"vÃ¥rden":4560,"jobb":4561,"ID":4562,"Ġtexter":4563,"ĠPatrik":4564,"ĠmÃ¤nniskorna":4565,"Ġutrikes":4566,"ĠBlack":4567,"Ġoffer":4568,"Ġbarns":4569,"Ġbensin":4570,"ĠsÃ¶kande":4571,"ppar":4572,"llt":4573,"lÃ¤ggning":4574,"fullt":4575,"Ġbetalas":4576,"Ġinvestering":4577,"ĠDa":4578,"Ġinter":4579,"Ġgo":4580,"Ġdokument":4581,"ĠgrÃ¤ns":4582,"ĠLo":4583,"ĠamatÃ¶r":4584,"ĠTycker":4585,"ĠanstÃ¤lld":4586,"Ġtalets":4587,"Ġhalvt":4588,"ĠpÃ¥verkas":4589,"Ġmedveten":4590,"ĠstÃ¤rka":4591,"ikern":4592,"bon":4593,"ĠhÃ¥llet":4594,"Ġpga":4595,"Ġxxx":4596,"Ġagera":4597,"Ġ2003":4598,"Ġ68":4599,"ĠtillgÃ¤nglig":4600,"Ġsyftar":4601,"Ġkosta":4602,"ĠanvÃ¤nde":4603,"Ġviktigare":4604,"ĠHÃ¤ll":4605,"ĠÃ¶re":4606,"tem":4607,"lands":4608,"Ġ74":4609,"ĠfÃ¤lt":4610,"kor":4611,"ĠutgÃ¥":4612,"eda":4613,"skon":4614,"storp":4615,"ĠSJ":4616,"ĠÃ¤ktenskap":4617,"Ġsnygga":4618,"Ġarbetsmarknad":4619,"ĠefterfrÃ¥gan":4620,"Ġslott":4621,"ĠfÃ¶rlora":4622,"Ġregi":4623,"ĠstÃ¶r":4624,"Ġ76":4625,"splats":4626,"Ġvattendrag":4627,"Ġhistoriska":4628,"ĠlÃ¤mpligt":4629,"ĠvÃ¤gg":4630,"Ã©er":4631,"ĠpÃ¥sk":4632,"ĠupptÃ¤ckte":4633,"ĠSnart":4634,"kte":4635,"ĠSP":4636,"ĠSofia":4637,"Ġannonser":4638,"ĠundersÃ¶ka":4639,"ĠmÃ¶jligheterna":4640,"svar":4641,"Ġtacka":4642,"ĠPr":4643,"karen":4644,"fel":4645,"Ġmeddelade":4646,"mÃ¤ssigt":4647,"ric":4648,"Ġthaimassage":4649,"Ġ1900":4650,"Ġsamverkan":4651,"Ġtrevliga":4652,"ĠAN":4653,"Ġstudera":4654,"Ġutmaningar":4655,"ĠNorden":4656,"ĠfÃ¶rl":4657,"ĠThor":4658,"mm":4659,"Ġdomstol":4660,"ĠPo":4661,"Ġkost":4662,"Ġtand":4663,"th":4664,"ĠmilitÃ¤ra":4665,"ay":4666,"ĠSkÃ¤r":4667,"Ġnaturlig":4668,"Ġperfekta":4669,"Ġwebb":4670,"rummet":4671,"TT":4672,"Ġdeltagande":4673,"Ġakut":4674,"ĠlÃ¤rar":4675,"ĠAss":4676,"Ġdagligen":4677,"Ġvinnare":4678,"ĠÃ¶r":4679,"ĠJon":4680,"ĠlÃ¤nsstyrelsen":4681,"iets":4682,"Ġvaknade":4683,"ĠLiv":4684,"iat":4685,"ĠkÃ¶":4686,"Ġorolig":4687,"ĠuppnÃ¥":4688,"Ġfatta":4689,"Ã¥rden":4690,"ĠÃ¥tgÃ¤rd":4691,"Ġrid":4692,"Ġsyd":4693,"sr":4694,"ĠSÃ¶dertÃ¤lje":4695,"sport":4696,"Ġstation":4697,"ĠPolen":4698,"isera":4699,"usen":4700,"kraft":4701,"Ġfysiska":4702,"ĠtrÃ¤ningen":4703,"Ġare":4704,"hy":4705,"ĠIstÃ¤llet":4706,"Ġgas":4707,"Ġvana":4708,"Ġbetalning":4709,"Ġunik":4710,"ĠhjÃ¤lpte":4711,"ĠvÃ¥ras":4712,"ĠfÃ¶religger":4713,"Ġdemokrati":4714,"ĠLinda":4715,"Ġledamot":4716,"ĠFred":4717,"usk":4718,"ĠtÃ¤vla":4719,"Ġgrej":4720,"set":4721,"Ġskrattar":4722,"Ġuppenbart":4723,"ĠÃ¶fver":4724,"Ġinnebar":4725,"ĠaffÃ¤ren":4726,"ĠEng":4727,"Ġno":4728,"ĠomstÃ¤ndigheter":4729,"Ġarm":4730,"ĠBel":4731,"Ġplanera":4732,"ĠRolf":4733,"Ġrosa":4734,"Ġklarade":4735,"Ġlagstiftning":4736,"Ġskatter":4737,"ĠAxel":4738,"Ã¶rd":4739,"ĠDahl":4740,"ĠfortsÃ¤ttningen":4741,"Ġturist":4742,"Ġtagits":4743,"Ġwith":4744,"ĠOavsett":4745,"Ġbeslutade":4746,"Ġmail":4747,"delar":4748,"byggnad":4749,"Ġjournalist":4750,"Ġansvarar":4751,"mÃ¤stare":4752,"igen":4753,"Ġlyx":4754,"Ġfyllt":4755,"Ġdetsamma":4756,"ĠDET":4757,"Ġ2002":4758,"ĠPost":4759,"Ġeftermiddagen":4760,"Ġ62":4761,"ĠÃĸstersund":4762,"gÃ¥ende":4763,"ĠpopulÃ¤r":4764,"Ġoper":4765,"ĠstÃ¤nga":4766,"ĠÃ¶verenskommelse":4767,"Ġarbetsplats":4768,"Ã¤rer":4769,"Ġordna":4770,"backen":4771,"Ġchefen":4772,"Ġacceptera":4773,"Ġarbetare":4774,"ĠbesÃ¶ker":4775,"Ã¤k":4776,"ĠLjung":4777,"Ġvanligaste":4778,"ĠinsÃ¥g":4779,"ash":4780,"Ġmetall":4781,"ĠfÃ¶reningar":4782,"ĠGen":4783,"ligaste":4784,"Ġutmaning":4785,"Ġ79":4786,"industrin":4787,"Ġtvingades":4788,"Ġskjut":4789,"ĠSA":4790,"ĠMkr":4791,"ĠEndast":4792,"hÃ¶g":4793,"Ġmeningen":4794,"ĠlÃ¤ggs":4795,"Ġram":4796,"ĠfÃ¶rhoppningsvis":4797,"ĠLin":4798,"Ġchanser":4799,"Ġverkstad":4800,"ĠÃĦn":4801,"ĠfÃ¶retagets":4802,"port":4803,"ĠjÃ¤mfÃ¶ra":4804,"Ġelit":4805,"ĠOfta":4806,"Ġ2001":4807,"Ġavslutade":4808,"gel":4809,"ĠskÃ¶ta":4810,"ĠGun":4811,"Ġfastigheter":4812,"Ġseg":4813,"ity":4814,"ros":4815,"Ġrollen":4816,"Ġdras":4817,"ĠumgÃ¥s":4818,"ĠKim":4819,"Ġgymnasiet":4820,"vikt":4821,"Ġsprida":4822,"medel":4823,"ald":4824,"ĠÃ¥ngest":4825,"Ġtrans":4826,"ĠFyra":4827,"ÃĸR":4828,"Ġmiss":4829,"ĠSyftet":4830,"Ġim":4831,"ÃĦR":4832,"Ġko":4833,"Ġminnen":4834,"Ġgrovt":4835,"rist":4836,"Ġpolitikerna":4837,"Ġmis":4838,"IL":4839,"Ġanfall":4840,"ĠÃĦR":4841,"AM":4842,"Ġlycka":4843,"ĠfÃ¶redrag":4844,"ĠbestÃ¤lla":4845,"Ġskjuta":4846,"itz":4847,"Ġbetalt":4848,"old":4849,"ĠRichard":4850,"sÃ¥s":4851,"ĠPol":4852,"Ġpraktik":4853,"spr":4854,"ĠFre":4855,"Ġarbetsmarknaden":4856,"ĠvÃ¤xande":4857,"Ġbro":4858,"ums":4859,"Ã¥rig":4860,"ĠRos":4861,"Ġhamna":4862,"rÃ¤d":4863,"sÃ¤ttningen":4864,"fest":4865,"hets":4866,"ĠsuccÃ©":4867,"ĠAb":4868,"Ġeffekter":4869,"Ġglass":4870,"Ġuttalande":4871,"ĠlÃ¤gg":4872,"CK":4873,"yp":4874,"stal":4875,"Ġvil":4876,"ĠbÃ¥ten":4877,"ĠaktÃ¶rer":4878,"Ġins":4879,"ologiska":4880,"ĠifrÃ¥ga":4881,"Ġproduktionen":4882,"ĠdÃ¶rr":4883,"Ġhat":4884,"Ġinleddes":4885,"resor":4886,"ĠFru":4887,"shuset":4888,"Ġarbeten":4889,"oma":4890,"eld":4891,"tiden":4892,"ĠSE":4893,"Ã¥nga":4894,"ĠBank":4895,"Ġfunnit":4896,"ĠberÃ¤ttelse":4897,"Ġtempo":4898,"ĠSchweiz":4899,"Ġsnitt":4900,"Ġpark":4901,"ĠÃ¥rsÃ¥ldern":4902,"Ġkuperad":4903,"system":4904,"18":4905,"ĠSÃ¤rskilt":4906,"Ġgammalt":4907,"Ġvinster":4908,"ssa":4909,"ĠÃħsa":4910,"Ġutt":4911,"omrÃ¥de":4912,"ĠtjÃ¤nar":4913,"Ġgolv":4914,"ep":4915,"sarbete":4916,"ĠvÃ¤rldskriget":4917,"ĠtjÃ¤nste":4918,"ĠvÃ¤rdet":4919,"Ġsjukdomar":4920,"ote":4921,"US":4922,"ĠsÃ¶k":4923,"priset":4924,"mÃ¤nnen":4925,"ive":4926,"ĠSamtliga":4927,"Ġskilda":4928,"Ġdeltagarna":4929,"ĠGar":4930,"ĠVÃ¤ster":4931,"ĠmÃ¶rka":4932,"Ġ77":4933,"Ġprocessen":4934,"ĠkommittÃ©n":4935,"ĠKron":4936,"orr":4937,"uter":4938,"Ġler":4939,"80":4940,"lopp":4941,"hallen":4942,"Ġfinansiering":4943,"ĠinfÃ¶ra":4944,"Ġrektor":4945,"ĠChristian":4946,"ĠLilla":4947,"ĠKat":4948,"vakt":4949,"Ġba":4950,"ĠJohanna":4951,"ĠHand":4952,"Ġfond":4953,"ĠhÃ¥llas":4954,"Ġtyder":4955,"Ġbandet":4956,"ĠNorrland":4957,"Ġklicka":4958,"Ġinomhus":4959,"ĠMamma":4960,"Ġkorrekt":4961,"ĠTv":4962,"tro":4963,"ivet":4964,"fÃ¤lt":4965,"Ġrika":4966,"ĠstÃ¶dja":4967,"Ġrese":4968,"Ġskadade":4969,"Ġinner":4970,"Ġup":4971,"Ġskyldig":4972,"namn":4973,"Ġbeskriva":4974,"Ġbryr":4975,"andes":4976,"Ġbrett":4977,"Ġkapitel":4978,"Ġ180":4979,"alet":4980,"Ġsnyggt":4981,"utveckling":4982,"ĠtrÃ¤dgÃ¥rden":4983,"Ġkust":4984,"ĠÃħter":4985,"ĠvÃ¤xter":4986,"Ġenormt":4987,"ĠTanken":4988,"ĠgrÃ¶nsaker":4989,"ĠProgram":4990,"Ġdialog":4991,"ĠSkellefteÃ¥":4992,"Ġleverans":4993,"ĠingÃ¥":4994,"iven":4995,"Ġ1950":4996,"Ġbyggas":4997,"Ġhvil":4998,"ĠtvÃ¥ng":4999,"ĠCom":5000,"Ġyta":5001,"lÃ¶st":5002,"arbeten":5003,"ĠanfÃ¶r":5004,"ĠVisby":5005,"ise":5006,"Ġmake":5007,"Ġplanerade":5008,"UR":5009,"ress":5010,"Ġpriserna":5011,"ĠslÃ¤ppte":5012,"branschen":5013,"Ġfredags":5014,"Ġkuk":5015,"Ġmg":5016,"Ġsegrar":5017,"Ġreligion":5018,"omrÃ¥den":5019,"Ġgt":5020,"ĠansprÃ¥k":5021,"Ġsynnerhet":5022,"ĠvÃ¥ga":5023,"Ġpersonuppgifter":5024,"ĠkÃ¤ra":5025,"ĠfÃ¥gel":5026,"Ġmisshandel":5027,"ĠkonstnÃ¤r":5028,"ĠÃ¤g":5029,"ĠlÃ¤tta":5030,"Ġhuruvida":5031,"ĠÃ¥terupp":5032,"Ġpresenteras":5033,"Ã¤d":5034,"ĠStar":5035,"ĠVin":5036,"ĠAnvÃ¤nd":5037,"Ġduktiga":5038,"ĠÃ¤ldsta":5039,"Ġdragit":5040,"Ġyrke":5041,"Ġutskott":5042,"ĠJack":5043,"15":5044,"Ġautomatiskt":5045,"allen":5046,"fa":5047,"Ġfattar":5048,"strÃ¶ms":5049,"una":5050,"Ġnordost":5051,"Ġmaskiner":5052,"ĠdirektÃ¶r":5053,"ĠtÃ¤tt":5054,"ĠinnehÃ¥llet":5055,"ĠHarry":5056,"Ġutseende":5057,"Ġpresentera":5058,"ĠÃ¥sikt":5059,"Ġstatsminister":5060,"landet":5061,"Ġlevde":5062,"ĠrÃ¤knat":5063,"handlingar":5064,"lagt":5065,"ĠfÃ¶rÃ¤ndra":5066,"ĠFalun":5067,"ĠlÃ¶s":5068,"Ġvardagen":5069,"Ġamp":5070,"ilt":5071,"Ġhall":5072,"16":5073,"ĠhÃ¤n":5074,"ĠFin":5075,"dera":5076,"ĠYtterligare":5077,"ĠUtÃ¶ver":5078,"Ġgolf":5079,"annen":5080,"Ġas":5081,"ĠDalarna":5082,"ĠAg":5083,"Ġdygnet":5084,"ĠEskort":5085,"ĠhÃ¤ndelsen":5086,"Ġlikt":5087,"Ġsomras":5088,"Ġlovar":5089,"Ġda":5090,"Ġsc":5091,"ĠvÃ¤nt":5092,"Ġbefolkning":5093,"ĠfÃ¶reslagna":5094,"lÃ¶":5095,"ĠSta":5096,"ĠMac":5097,"ĠberÃ¶rda":5098,"Ġheltid":5099,"Ġsatsning":5100,"Ġsover":5101,"amm":5102,"gud":5103,"ĠSweden":5104,"sminister":5105,"ĠHanna":5106,"Ġitalienska":5107,"Ġemellan":5108,"inne":5109,"iff":5110,"ĠuppehÃ¥ll":5111,"hi":5112,"jar":5113,"rÃ¶r":5114,"ĠvÃ¤ggen":5115,"Ġide":5116,"fallet":5117,"ĠÃ¤tit":5118,"Ġann":5119,"vit":5120,"ĠvÃ¤lfÃ¤rd":5121,"isar":5122,"ĠMÃ¥let":5123,"oppen":5124,"ĠsÃ¶t":5125,"Ġpatient":5126,"back":5127,"ĠbesÃ¶kte":5128,"Ġkun":5129,"ĠOn":5130,"ĠEG":5131,"ĠfÃ¶retrÃ¤dare":5132,"nats":5133,"Ã©r":5134,"AND":5135,"UN":5136,"ĠÃ¥kt":5137,"Ġ\\":5138,"Ġadvokat":5139,"ĠrejÃ¤l":5140,"Ġurval":5141,"Ġreste":5142,"Ġsjunga":5143,"ĠsjÃ¤lvstÃ¤ndigt":5144,"Ã¤nder":5145,"ĠvÃ¤rden":5146,"ĠvÃ¤rdering":5147,"Ġtorg":5148,"ĠbegrÃ¤nsad":5149,"Ġot":5150,"ze":5151,"ĠGuds":5152,"erings":5153,"ĠVÃ¤r":5154,"ĠÃ¶vertygad":5155,"ela":5156,"Ġmerit":5157,"ĠGrÃ¶n":5158,"Ã¤nnen":5159,"ĠSkÃ¶vde":5160,"ĠBirgitta":5161,"ĠMag":5162,"Ġuppgifterna":5163,"ĠAustralien":5164,"Ġdyr":5165,"frÃ¥ga":5166,"Ġleka":5167,"flyg":5168,"ĠJul":5169,"Ġrapporterar":5170,"ĠfÃ¶rm":5171,"ben":5172,"rav":5173,"Ġkass":5174,"ĠAnsÃ¶kan":5175,"ĠNiklas":5176,"ĠhÃ¶stas":5177,"ellt":5178,"ĠHelsingfors":5179,"Ġinledde":5180,"ĠarbetslÃ¶shet":5181,"Ġskolans":5182,"ux":5183,"ĠunderklÃ¤der":5184,"Ġtiteln":5185,"Ġytan":5186,"ĠskÃ¤mt":5187,"Ġugnen":5188,"rop":5189,"way":5190,"Ġkursen":5191,"Ã¤nn":5192,"ĠEuropas":5193,"ĠnyÃ¥r":5194,"ĠMoskva":5195,"sled":5196,"ĠdÃ¤ck":5197,"organisation":5198,"ĠlÃ¤rde":5199,"RE":5200,"Ġvideos":5201,"ĠIndien":5202,"ĠlÃ¥ngsamt":5203,"Ġkatastrof":5204,"ĠstrÃ¤cker":5205,"ĠHammar":5206,"Ġtysk":5207,"Ġpersonligt":5208,"ĠPalm":5209,"ekt":5210,"ĠsnÃ¤ll":5211,"rades":5212,"Ã¤gg":5213,"ĠPe":5214,"Ġbegrepp":5215,"gl":5216,"ĠFÃ¤r":5217,"ĠfÃ¶rutsÃ¤ttningarna":5218,"ĠSolna":5219,"Ġbesk":5220,"Ġbefintliga":5221,"bom":5222,"Ġtalas":5223,"ĠstÃ¶rst":5224,"Ġbetraktas":5225,"digt":5226,"ĠStrand":5227,"Ġdigital":5228,"Ġhemmaplan":5229,"ĠberÃ¤ttat":5230,"ĠfÃ¶rdes":5231,"styr":5232,"Ġdusch":5233,"Ġarbetskraft":5234,"ĠHammarby":5235,"boken":5236,"Ġminuten":5237,"Ġ1999":5238,"ĠsÃ¶rj":5239,"ĠJenny":5240,"Ġsymbol":5241,"Ġtyg":5242,"ĠKD":5243,"ĠGÃ¶sta":5244,"Ġpoliser":5245,"alis":5246,"Ġtillkommer":5247,"ĠfÃ¶reslÃ¥s":5248,"Ġkonflikt":5249,"Ġflyktingar":5250,"ĠnÃ¤ring":5251,"ĠsjukvÃ¥rden":5252,"ĠBur":5253,"Ġomgivningarna":5254,"sken":5255,"Ġkraven":5256,"ĠHansson":5257,"fulla":5258,"Ġ88":5259,"ĠsÃ¤lj":5260,"ada":5261,"ĠDagen":5262,"ĠFÃ¶retaget":5263,"Ġlandslaget":5264,"ĠIran":5265,"Ġuppgiften":5266,"Ġmogna":5267,"ĠlÃ¶ner":5268,"Ġplanerat":5269,"Ġindivid":5270,"Ġgentemot":5271,"Ġstruktur":5272,"Ã¥ngen":5273,"Ġ1998":5274,"ĠkrÃ¤va":5275,"Ġrabatt":5276,"zz":5277,"ĠÃ¤ndras":5278,"sskolan":5279,"Ġid":5280,"punkten":5281,"Ġarv":5282,"fonden":5283,"unk":5284,"Ġflyttat":5285,"Ġskickade":5286,"vÃ¤rdet":5287,"ĠbestÃ¥ende":5288,"Ġanpassa":5289,"ugg":5290,"Ġpeppar":5291,"ĠlÃ¤ngtar":5292,"ĠHed":5293,"Ġartikeln":5294,"Ġvikten":5295,"ĠfÃ¶retagare":5296,"ĠmÃ¤rks":5297,"Ġidentitet":5298,"amp":5299,"Ġsugen":5300,"spro":5301,"ĠhÃ¤kt":5302,"ĠlÃ¶pande":5303,"ĠBre":5304,"mi":5305,"Ġmysigt":5306,"Ġbitar":5307,"Ġ1994":5308,"ĠModeraterna":5309,"24":5310,"ĠGer":5311,"Ġkraftig":5312,"Ġsynnerligen":5313,"jor":5314,"ĠKnulla":5315,"Ġtappade":5316,"ĠEricsson":5317,"Ġlandsbygden":5318,"ĠnÃ¶dvÃ¤ndiga":5319,"ĠglÃ¶mt":5320,"Ġbudskap":5321,"ĠToppen":5322,"Ġiallafall":5323,"Ã¶rerna":5324,"Ġdec":5325,"Ã¤nda":5326,"Ġsprit":5327,"Ġlita":5328,"Ġstr":5329,"Ġpratat":5330,"Ġsamarbetet":5331,"ĠAnnika":5332,"Ġsocialt":5333,"ĠKommunen":5334,"splatsen":5335,"ĠanvÃ¤ndare":5336,"ĠdÃ¤rpÃ¥":5337,"ĠfÃ¶rhandlingar":5338,"ĠTy":5339,"ĠElin":5340,"ĠSvart":5341,"ĠmÃ¤rkt":5342,"ĠmÃ¤rker":5343,"Ġantagligen":5344,"ĠrÃ¥n":5345,"eck":5346,"Ġ83":5347,"Ġgul":5348,"Ġkonferens":5349,"ĠÃ¤gde":5350,"ette":5351,"Ġlocka":5352,"Ġfulla":5353,"ĠlÃ¤ggas":5354,"igg":5355,"part":5356,"Ġgud":5357,"Ġregistrering":5358,"ĠSjÃ¤lvklart":5359,"uten":5360,"ĠmotstÃ¥ndare":5361,"Ġti":5362,"Ġtillsyn":5363,"Ġaktuellt":5364,"Ġspringer":5365,"ĠundersÃ¶kningar":5366,"Ġkollegor":5367,"Ġdyrt":5368,"bord":5369,"Ġartister":5370,"rog":5371,"Ġuppdraget":5372,"iserade":5373,"Ġkopp":5374,"ĠbÃ¶lj":5375,"yra":5376,"Ġenskild":5377,"Ġgrejer":5378,"Ġpre":5379,"Ġos":5380,"ĠfÃ¶rhindra":5381,"ĠKommun":5382,"Ġbana":5383,"ĠFÃ¶lj":5384,"satta":5385,"jt":5386,"Ġtex":5387,"Ġpunkter":5388,"ĠDam":5389,"Ġdottern":5390,"Ã¡":5391,"ĠKort":5392,"Ġgranskning":5393,"Ġavses":5394,"ele":5395,"Ġtorr":5396,"atten":5397,"Ġpo":5398,"uppgifter":5399,"holmen":5400,"Ġenheter":5401,"Ġtema":5402,"eh":5403,"Ġkvart":5404,"Ġhe":5405,"Ġmotiv":5406,"ĠnÃ¤ringslivet":5407,"Ġinbrott":5408,"ĠGÃ¥r":5409,"ĠSexiga":5410,"Ġset":5411,"lem":5412,"ĠBok":5413,"stÃ¤llningar":5414,"ĠutgÃ¥ngspunkt":5415,"Ġbilda":5416,"ĠmÃ¥lvakt":5417,"station":5418,"Ġfalla":5419,"ĠbrÃ¶t":5420,"ĠanmÃ¤la":5421,"Ġbolagets":5422,"Ġvanligtvis":5423,"ĠkÃ¤nnas":5424,"Ġbekymmer":5425,"Ġvall":5426,"Ġkonsument":5427,"ĠÃĦnnu":5428,"Ġhej":5429,"Ġljuset":5430,"Ġdebut":5431,"Ġgenerellt":5432,"Ġandras":5433,"ĠgÃ¤sterna":5434,"fria":5435,"Ġ84":5436,"Ġbomb":5437,"ice":5438,"ĠIK":5439,"ĠMora":5440,"ĠIm":5441,"Ġsnarast":5442,"ĠMÃ¥ste":5443,"ĠmÃ¶bler":5444,"Ġsinglar":5445,"ĠidÃ©n":5446,"ĠÃ¥ldern":5447,"Ġver":5448,"ĠkÃ¤mpar":5449,"21":5450,"vÃ¤rda":5451,"FF":5452,"ĠBild":5453,"ĠFlyg":5454,"Ġstill":5455,"Ġupplevelser":5456,"Ġgodis":5457,"ĠlÃ¥ten":5458,"ĠFort":5459,"ĠHelena":5460,"ĠfÃ¶rskolan":5461,"Ġgn":5462,"Ġreaktion":5463,"ĠprÃ¤st":5464,"Ġrund":5465,"Ġmaka":5466,"ĠHitta":5467,"ĠRoger":5468,"Ġsydost":5469,"ĠðŁĺ":5470,"Ġinredning":5471,"ĠpÃ¥pekar":5472,"splanen":5473,"Ġopposition":5474,"skvÃ¤llen":5475,"ĠGl":5476,"por":5477,"eman":5478,"Ġsteget":5479,"klubben":5480,"ĠAmerika":5481,"rÃ¤de":5482,"Ġvarierar":5483,"ĠmÃ¶ts":5484,"Ġgjord":5485,"Ġpraktisk":5486,"Ġargument":5487,"ĠLed":5488,"Ġfokusera":5489,"ĠmalmÃ¶":5490,"omm":5491,"Ġfoto":5492,"Ġinkomster":5493,"vor":5494,"ĠvÃ¤rmen":5495,"ĠFler":5496,"Ġkunden":5497,"Ġimport":5498,"Ġgener":5499,"Ġsal":5500,"ĠbedÃ¶ma":5501,"Ġcookies":5502,"ĠCup":5503,"Ġ1500":5504,"ogs":5505,"Ġasyl":5506,"Ġbefann":5507,"Ġhoppade":5508,"ĠpÃ¥minner":5509,"Ġtvekan":5510,"Ġmobilen":5511,"ĠInformation":5512,"Ġspelades":5513,"Ġnarkotika":5514,"Ġledsen":5515,"marknaden":5516,"ĠSkol":5517,"ĠAnledningen":5518,"ocken":5519,"Ġrisker":5520,"stÃ¤llningen":5521,"Ġris":5522,"ĠhÃ¶rn":5523,"Ġveckorna":5524,"Ġkors":5525,"ĠLÃ¤nsstyrelsen":5526,"amen":5527,"igaste":5528,"Ġflickan":5529,"ĠfÃ¶rste":5530,"mann":5531,"ĠursÃ¤kt":5532,"Ġpolisens":5533,"ĠDirekt":5534,"ĠBi":5535,"Ġdiverse":5536,"ty":5537,"ulle":5538,"hjÃ¤lp":5539,"Ġinkl":5540,"ĠBack":5541,"90":5542,"Ġrapporten":5543,"ĠrÃ¤nte":5544,"ĠlÃ¤kar":5545,"Ġutsatt":5546,"ĠSo":5547,"ĠkÃ¤rleken":5548,"ĠskrÃ¤ck":5549,"Ġbehandlingen":5550,"tera":5551,"Ġsch":5552,"maskin":5553,"ĠutstÃ¤llningen":5554,"Ġ96":5555,"Ġmuseet":5556,"Ġattack":5557,"Ġisen":5558,"Ġinst":5559,"Ġskade":5560,"handel":5561,"ĠÃ¶de":5562,"Ġbarnens":5563,"sspel":5564,"Ġsanningen":5565,"ĠsÃ¤":5566,"ĠMil":5567,"Ġsakta":5568,"ĠPre":5569,"Ġalltmer":5570,"Ġrimligt":5571,"ĠKerstin":5572,"Ġfi":5573,"ĠdÃ¶ma":5574,"Ġtillt":5575,"Ġpojke":5576,"Ġdubbelt":5577,"ĠfÃ¶rvÃ¤g":5578,"ĠhÃ¥rdare":5579,"Ġsamarbeta":5580,"Ġsamlat":5581,"Ġflykt":5582,"kÃ¶p":5583,"ĠÃĸvriga":5584,"cher":5585,"ild":5586,"Ġparkering":5587,"ĠPRO":5588,"Ġne":5589,"listan":5590,"ĠdÃ¶den":5591,"ĠTurkiet":5592,"Ġutskottet":5593,"sÃ¤tt":5594,"ĠvÃ¤rderingar":5595,"ativa":5596,"ĠMel":5597,"ativ":5598,"grund":5599,"Ġbanken":5600,"Ġdrivs":5601,"ĠtillÃ¤mpas":5602,"Ġgrepp":5603,"Ġlediga":5604,"ĠRosen":5605,"Ġmunnen":5606,"ĠDjur":5607,"musik":5608,"Ġnormala":5609,"Ġkasta":5610,"Ġandas":5611,"Ġombud":5612,"Ġrunda":5613,"Ġsan":5614,"ĠsÃ¤nka":5615,"Ġsexuella":5616,"ĠfÃ¤st":5617,"ĠtrÃ¤ff":5618,"Ġter":5619,"Ġnation":5620,"Ġblick":5621,"ĠsamhÃ¤lls":5622,"Ġspa":5623,"ĠHD":5624,"Ġlokalt":5625,"Ġpat":5626,"Ġalbum":5627,"unn":5628,"fÃ¶rande":5629,"Ġsmart":5630,"ĠfÃ¶rhÃ¥llandet":5631,"Ġbyggdes":5632,"ĠSim":5633,"Ġmeddelar":5634,"Ã¤mt":5635,"Ġhttps":5636,"Ġanledningen":5637,"ligheter":5638,"ĠSyrien":5639,"ĠLager":5640,"talet":5641,"Ġbyggs":5642,"shem":5643,"Ġhuden":5644,"Ġstatus":5645,"ĠIsland":5646,"ĠKÃ¶r":5647,"stam":5648,"obb":5649,"bad":5650,"ĠanlÃ¤ggning":5651,"ĠtjÃ¤nstemÃ¤n":5652,"Ġmedlemmarna":5653,"Ġoklart":5654,"Ġutbildnings":5655,"Ġlyfter":5656,"delen":5657,"Ġstads":5658,"ĠlÃ¶st":5659,"jÃ¤nst":5660,"ĠSocial":5661,"slÃ¶s":5662,"Ġbox":5663,"Ġbesviken":5664,"Ġmormor":5665,"ĠsÃ¶ndags":5666,"Ġsignal":5667,"Ġstol":5668,"ĠSommar":5669,"ĠBarnen":5670,"ĠrÃ¤cka":5671,"ĠprÃ¶va":5672,"Ġexpert":5673,"Ġleende":5674,"Ġtrav":5675,"lÃ¤ge":5676,"Ġlott":5677,"Ġbilliga":5678,"satt":5679,"Ġspanska":5680,"ĠskÃ¥despelare":5681,"kur":5682,"Ġlo":5683,"Ġenorma":5684,"stat":5685,"ĠmÃ¤rkligt":5686,"PP":5687,"sledare":5688,"oten":5689,"Ġorsak":5690,"Ã¶ts":5691,"Ġher":5692,"ĠBjÃ¶r":5693,"ĠVÃ¤rmland":5694,"Ġpatienten":5695,"Ġtidig":5696,"ĠnÃ¤rhet":5697,"Ġpresenterade":5698,"ĠrÃ¶tt":5699,"kall":5700,"ĠÃ¤gna":5701,"Ġvetenskap":5702,"Ġmogen":5703,"Ġfortsatta":5704,"ĠBrand":5705,"Ġregelbundet":5706,"Ġstrategi":5707,"yta":5708,"ĠfÃ¶rsvara":5709,"ĠKal":5710,"Ġchat":5711,"Ġofficiella":5712,"ĠmedfÃ¶ra":5713,"Ġsekund":5714,"ots":5715,"Ġdelade":5716,"Ġkonsult":5717,"Ġbeskrivs":5718,"ĠDem":5719,"ĠIng":5720,"ĠfÃ¶rvÃ¤ntningar":5721,"Ġkampanj":5722,"Ġuppgick":5723,"ĠfÃ¥ng":5724,"Ġberedskap":5725,"Ġlider":5726,"rick":5727,"ĠfÃ¶rhandling":5728,"punkt":5729,"ĠRÃ¶da":5730,"ĠfÃ¶rsiktigt":5731,"ĠMÃ¥n":5732,"ĠÃ¥rligen":5733,"rot":5734,"ĠÃ¥tskilliga":5735,"Ġlastbil":5736,"ĠfÃ¶rsvaret":5737,"Ġtull":5738,"get":5739,"Ġfas":5740,"ĠsÃ¤ljs":5741,"ĠmÃ¥len":5742,"Ġlig":5743,"ĠersÃ¤tta":5744,"Ġramen":5745,"Ġkunderna":5746,"Ġmask":5747,"naden":5748,"Ġ82":5749,"ĠTar":5750,"ĠkÃ¶rkort":5751,"Ġifall":5752,"Ġporrfilm":5753,"ĠkÃ¤mpa":5754,"Ġlandskap":5755,"ĠNÃ¤":5756,"skol":5757,"ingens":5758,"ĠAhl":5759,"Ġ86":5760,"ĠnÃ¶dvÃ¤ndig":5761,"ĠGuld":5762,"Ġvarenda":5763,"ump":5764,"Ġhyr":5765,"Ġslutat":5766,"Ġutvecklar":5767,"ĠFoto":5768,"ĠRen":5769,"uc":5770,"bildning":5771,"ĠanvÃ¤ndes":5772,"ĠWilliam":5773,"ova":5774,"TER":5775,"hÃ¶ll":5776,"Ġorter":5777,"Ġog":5778,"Ġserveras":5779,"Ġga":5780,"Ġgar":5781,"Q":5782,"ĠfÃ¶rrÃ¤tt":5783,"ĠKristianstad":5784,"syn":5785,"lor":5786,"ĠOcksÃ¥":5787,"ĠIngrid":5788,"ĠHol":5789,"Ġfirar":5790,"savgift":5791,"Ġtitt":5792,"ĠII":5793,"ningsk":5794,"lass":5795,"Ġkvadratmeter":5796,"lats":5797,"Ġbakgrunden":5798,"ĠdÃ¶mdes":5799,"Ġdelarna":5800,"ingenjÃ¶r":5801,"Ġsken":5802,"Ġ1995":5803,"Ġuppenbarligen":5804,"ĠfÃ¶rvÃ¥nad":5805,"Ġutav":5806,"Ġglesbefolkat":5807,"ĠfÃ¶rvÃ¤ntas":5808,"ĠunderlÃ¤tta":5809,"Ġledaren":5810,"Ġtjugo":5811,"Ġ1997":5812,"iella":5813,"AB":5814,"Ġallvarlig":5815,"Ġ89":5816,"Ġdagliga":5817,"ĠfÃ¶rekomma":5818,"yll":5819,"Ġskr":5820,"Ġerbjuds":5821,"ĠIr":5822,"Ġdiplom":5823,"ĠlÃ¶":5824,"Ġavdelningen":5825,"ĠFÃ¶retag":5826,"Ġskam":5827,"ĠstÃ¤llas":5828,"ĠÃħh":5829,"ĠÃ¥rliga":5830,"mas":5831,"rika":5832,"ĠGT":5833,"Ġbehandla":5834,"ĠMari":5835,"Ġutvecklats":5836,"Ġeventuell":5837,"Ġexperter":5838,"Ġunge":5839,"ĠBlom":5840,"Ã¤garen":5841,"ĠAdam":5842,"Ġ98":5843,"Ġinse":5844,"Ġkinesiska":5845,"ĠvÃ¤ntan":5846,"che":5847,"Ġcon":5848,"ĠLjus":5849,"Ġenstaka":5850,"ĠnÃ¤mnden":5851,"ĠfÃ¶rsÃ¤ljningen":5852,"TE":5853,"Ġ1992":5854,"Ġtruppen":5855,"dens":5856,"Ġknapp":5857,"Ġsocialdemokratiska":5858,"Ġinb":5859,"wa":5860,"ĠbeslÃ¶t":5861,"rÃ¤ck":5862,"ĠVI":5863,"Ġresultaten":5864,"ĠfÃ¶rlorar":5865,"ĠVisa":5866,"endet":5867,"schefen":5868,"ĠgrÃ¤s":5869,"ĠsmÃ¥tt":5870,"ĠCor":5871,"Ġlockar":5872,"Ġ71":5873,"ĠhÃ¶":5874,"Ġtemperatur":5875,"ĠAugust":5876,"ĠPlan":5877,"ĠFR":5878,"ĠJames":5879,"ĠNatur":5880,"Ġcell":5881,"ĠGre":5882,"Ġblandning":5883,"Ġcentralt":5884,"Ġkriminal":5885,"ĠÃ¥rsskiftet":5886,"Ġkostnaden":5887,"ĠKor":5888,"ĠFisk":5889,"bit":5890,"ski":5891,"ĠBol":5892,"Ġmodellen":5893,"Ġminskade":5894,"Ġavst":5895,"ĠdÃ¶k":5896,"fÃ¶rbund":5897,"inner":5898,"Ġpresenterar":5899,"Ġtrycka":5900,"Ġret":5901,"ĠProblemet":5902,"ĠAV":5903,"inte":5904,"lades":5905,"etta":5906,"Ġskapas":5907,"ĠMest":5908,"Ġleverera":5909,"ĠUlla":5910,"ĠBjÃ¶rk":5911,"Ġfotograf":5912,"ĠosÃ¤ker":5913,"ĠnÃ¤ringsliv":5914,"Ġparet":5915,"Ġsamlar":5916,"agn":5917,"ĠCentral":5918,"Ġinformationen":5919,"ĠÃ¥stadkomma":5920,"nades":5921,"ith":5922,"ĠlÃ¶p":5923,"ĠfÃ¤ll":5924,"Ġrev":5925,"ĠfÃ¶rlag":5926,"Ġinvandrare":5927,"Ġjournalister":5928,"Ġtappat":5929,"Ġbiljett":5930,"Ġmuseum":5931,"Ġenorm":5932,"Ġrot":5933,"Ġskivor":5934,"ĠGrekland":5935,"ĠIP":5936,"Ġresp":5937,"ĠBolaget":5938,"Ġindex":5939,"mare":5940,"formen":5941,"enden":5942,"Ġhamnat":5943,"UM":5944,"prov":5945,"ĠfÃ¶rvaltning":5946,"alitet":5947,"hÃ¶r":5948,"Ġmoln":5949,"ĠsÃ¤kerhets":5950,"over":5951,"ĠBengtsson":5952,"ĠpensionÃ¤r":5953,"olk":5954,"ĠberÃ¤ttelser":5955,"Ġkollade":5956,"ĠHudiksvall":5957,"Ġdrabbats":5958,"bal":5959,"Ġgivit":5960,"Ġhastighet":5961,"13":5962,"bana":5963,"17":5964,"ĠJohannes":5965,"Ġstift":5966,"Ġdyrare":5967,"fritt":5968,"stÃ¤lld":5969,"ĠomsÃ¤ttning":5970,"OLL":5971,"snivÃ¥":5972,"Ġgreps":5973,"ĠTwitter":5974,"ungen":5975,"ĠOnline":5976,"ĠklÃ¤d":5977,"ĠfÃ¶rbud":5978,"ĠfjÃ¤ll":5979,"rig":5980,"Ġdo":5981,"delse":5982,"Ġth":5983,"nader":5984,"ĠHaha":5985,"ĠFÃ¶reningen":5986,"ĠframhÃ¥ller":5987,"Ġjazz":5988,"ĠsÃ¤gas":5989,"Ġspr":5990,"mel":5991,"ĠGra":5992,"ĠvÃ¥g":5993,"Ġblad":5994,"omb":5995,"fil":5996,"Ġmeddelande":5997,"Ġefterhand":5998,"ands":5999,"filmer":6000,"ĠvÃ¤sentligt":6001,"Ġhalsen":6002,"Ġvuxit":6003,"IV":6004,"ĠsÃ¥lde":6005,"25":6006,"ĠBlanda":6007,"Ġnegativt":6008,"Ġfysiskt":6009,"Ġuttrycka":6010,"ĠUnited":6011,"ĠKul":6012,"ĠGoogle":6013,"Ġ87":6014,"ĠmÃ¤rke":6015,"hamn":6016,"Ġ1991":6017,"ĠBlekinge":6018,"Ġindustrin":6019,"ĠBoken":6020,"Ġly":6021,"Ġlycklig":6022,"ĠhÃ¤mtade":6023,"Ġevenemang":6024,"ĠSÃ¶n":6025,"Ġdomstolen":6026,"Ġmajoriteten":6027,"Ġmidsommar":6028,"Ġbehandlar":6029,"ĠKÃ¤nns":6030,"Ġgemenskap":6031,"ĠSenast":6032,"Ġgjorda":6033,"ĠknÃ¤":6034,"ĠFÃ¥":6035,"Ġexemplar":6036,"ĠINTE":6037,"ĠfÃ¶rstÃ¥tt":6038,"bilden":6039,"Ġposten":6040,"Ġuttag":6041,"Ġkamera":6042,"ĠÃ¤rende":6043,"uff":6044,"ĠdÃ¤rtill":6045,"ĠLos":6046,"Ġflertalet":6047,"ĠHal":6048,"ĠNÃ¤stan":6049,"Ġpressmeddelande":6050,"zon":6051,"yss":6052,"ĠIngvar":6053,"Ġsi":6054,"Ġverkligt":6055,"cer":6056,"ongen":6057,"Ġbedriva":6058,"ĠhÃ¤ng":6059,"ĠmisstÃ¤nkta":6060,"Ġkallat":6061,"Ġklassisk":6062,"Ã¶tt":6063,"Ġtidiga":6064,"Ġgram":6065,"ĠâĢ¢":6066,"ĠskÃ¶na":6067,"isa":6068,"olen":6069,"Ġtrott":6070,"ĠdÃ¤rvid":6071,"urs":6072,"Ġsu":6073,"Ġ1996":6074,"ĠDina":6075,"Ġgalopp":6076,"Ġobjekt":6077,"ĠgrÃ¶nt":6078,"ĠAnne":6079,"Ġroligare":6080,"Ġkameran":6081,"ĠfÃ¶rskola":6082,"gÃ¥r":6083,"kning":6084,"Ġuts":6085,"Ġfungerande":6086,"nÃ¤s":6087,"Ġgeneration":6088,"ĠerkÃ¤nna":6089,"Ġdensamma":6090,"ipp":6091,"ĠnivÃ¥er":6092,"Ġlevnad":6093,"Ġensamma":6094,"ĠtillfÃ¤lligt":6095,"sfÃ¶retag":6096,"unna":6097,"dels":6098,"Ġvaccin":6099,"ĠgrÃ¤n":6100,"marna":6101,"ĠForm":6102,"ĠKlicka":6103,"ĠRobin":6104,"sex":6105,"ach":6106,"Ġdiv":6107,"lev":6108,"Ġandre":6109,"Ġmon":6110,"ĠLindberg":6111,"ĠingenjÃ¶r":6112,"Ġmorse":6113,"Ġshow":6114,"Ġdansk":6115,"Ġ1993":6116,"Ġbreda":6117,"Ġinv":6118,"rem":6119,"dern":6120,"Ġtube":6121,"Ġkoppla":6122,"Ġbeskedet":6123,"Ġriktlinjer":6124,"ĠVa":6125,"ĠlÃ¶ser":6126,"Ġdiskussioner":6127,"pension":6128,"iser":6129,"ior":6130,"Ġdriv":6131,"ĠIN":6132,"produkter":6133,"Ġrapporter":6134,"ĠmÃ¶jlig":6135,"uck":6136,"Ġstallet":6137,"skrivning":6138,"bin":6139,"skador":6140,"Ġ1989":6141,"ĠvÃ¤nd":6142,"Ġgravid":6143,"ĠLi":6144,"Ġreal":6145,"anser":6146,"ĠKlockan":6147,"Ġerbjudande":6148,"Ġstartat":6149,"ĠOslo":6150,"ĠinnehÃ¥lla":6151,"Ġ61":6152,"Ġbryter":6153,"ĠAfrika":6154,"Ġtum":6155,"Ã¤nde":6156,"Ġrepresentant":6157,"smorgonen":6158,"ĠvÃ¤ljare":6159,"ENS":6160,"ĠdrÃ¶mmar":6161,"use":6162,"ĠhjÃ¤rnan":6163,"Ġfiske":6164,"ĠArbets":6165,"serie":6166,"ĠskadestÃ¥nd":6167,"ĠmÃ¥la":6168,"Ġrader":6169,"ĠfÃ¤rdigt":6170,"Ġfattiga":6171,"Ġavsked":6172,"Ġjan":6173,"Ġtekniken":6174,"Ġrutin":6175,"sbo":6176,"ĠClaes":6177,"ĠBlÃ¥":6178,"ane":6179,"ĠberÃ¶m":6180,"Ġbered":6181,"ĠrÃ¤dsla":6182,"jur":6183,"14":6184,"ĠgenomfÃ¶ras":6185,"Ġsammanhanget":6186,"ĠmÃ¥naderna":6187,"Ġlock":6188,"ĠFrank":6189,"Ġlivs":6190,"ĠGrund":6191,"ĠSenare":6192,"Ġsvenskarna":6193,"spar":6194,"Ġblanda":6195,"ĠdÃ¶tt":6196,"ĠfÃ¶rutsÃ¤tter":6197,"ĠtÃ¤t":6198,"ĠIrak":6199,"Ġtvivel":6200,"Ġdan":6201,"Ġintern":6202,"Ġinl":6203,"ĠMÃ¶r":6204,"rÃ¤ff":6205,"ĠbistÃ¥nd":6206,"Ġbildades":6207,"ĠprÃ¶vning":6208,"ĠMatt":6209,"ĠhÃ¥llbar":6210,"ĠAftonbladet":6211,"ĠrÃ¤ckte":6212,"somrÃ¥den":6213,"ĠPÃ¤r":6214,"ĠsamhÃ¤llets":6215,"karna":6216,"iseras":6217,"Ġhvar":6218,"ĠViktor":6219,"rott":6220,"ĠtÃ¤mligen":6221,"ĠhumÃ¶r":6222,"Ġutdelning":6223,"Ġ1985":6224,"Ġkont":6225,"Ġtitel":6226,"ĠlÃ¤":6227,"smed":6228,"Ġert":6229,"ĠleverantÃ¶rer":6230,"ĠnÃ¥dde":6231,"Ġorsaken":6232,"ĠvÃ¤nskap":6233,"ĠlÃ¥tit":6234,"ĠStyrelsen":6235,"ĠInter":6236,"Ġkontant":6237,"Ġdubbla":6238,"ĠKent":6239,"ĠÃ¤ng":6240,"Ġolyckan":6241,"Ġblom":6242,"Ġgro":6243,"stads":6244,"iro":6245,"ĠÃ¥k":6246,"kter":6247,"ĠHÃ¥ll":6248,"Ġmoms":6249,"berget":6250,"Ġsortiment":6251,"ĠDr":6252,"ĠDitt":6253,"Ġbur":6254,"jut":6255,"ĠJoakim":6256,"Ġhindra":6257,"elin":6258,"Ġkanal":6259,"spelet":6260,"Ġmet":6261,"ĠbakÃ¥t":6262,"ĠÃĸppet":6263,"ĠBlev":6264,"ĠBostad":6265,"ĠfÃ¶nstret":6266,"Ġbiljetter":6267,"Ġbyter":6268,"ften":6269,"ĠihjÃ¤l":6270,"Ġutgifter":6271,"jÃ¶n":6272,"Ġdl":6273,"ĠHotel":6274,"ĠSu":6275,"stÃ¤llda":6276,"Ġherrar":6277,"ĠSverigedemokraterna":6278,"ĠlÃ¶sningen":6279,"fin":6280,"ĠKÅ«h":6281,"ĠupptÃ¤ckt":6282,"ssystemet":6283,"Ġdrabbade":6284,"ĠsmÃ¤rta":6285,"tryck":6286,"Ġdemonstr":6287,"ordning":6288,"Ġklubbar":6289,"Ġ1988":6290,"ĠLÃ¤r":6291,"Ġavsluta":6292,"Ġmatt":6293,"ĠSig":6294,"ics":6295,"ĠGeorge":6296,"Ġgaranti":6297,"ĠAt":6298,"ĠmÃ¤t":6299,"hult":6300,"Ġdemokratiska":6301,"fÃ¤ltet":6302,"ĠtillÃ¥ter":6303,"ledning":6304,"iell":6305,"Ġbyggnaden":6306,"savtal":6307,"Ġhyre":6308,"Ġblivande":6309,"Ġavdrag":6310,"Ġtacksam":6311,"klar":6312,"Ġbeskrivning":6313,"Ġannons":6314,"ĠanvÃ¤nts":6315,"Ġavlopp":6316,"Ġandelen":6317,"ĠVideo":6318,"uta":6319,"ssp":6320,"Ġfungerade":6321,"ĠpÃ¥stÃ¥r":6322,"Ġveckans":6323,"ĠbegÃ¤ra":6324,"ĠBilder":6325,"Ġtunn":6326,"hÃ¤r":6327,"ĠSÃ¤tt":6328,"Ġhantverk":6329,"ĠÃ¶vre":6330,"Ġdatorer":6331,"ble":6332,"rÃ¤n":6333,"Ġbrukade":6334,"ĠLotta":6335,"Ġolyck":6336,"Ġallsvenskan":6337,"ĠFilmen":6338,"Ġbillig":6339,"que":6340,"Ġ94":6341,"ĠfÃ¤rdiga":6342,"ĠKristina":6343,"ĠAnt":6344,"cker":6345,"Ġgivet":6346,"Ġtuffa":6347,"Ġgay":6348,"Ġkollega":6349,"ĠlÃ¤nk":6350,"sor":6351,"ĠbegÃ¤ran":6352,"Ġfriska":6353,"ĠTra":6354,"Ġ1700":6355,"ĠfruktansvÃ¤rt":6356,"Ġbaserad":6357,"gÃ¥ngar":6358,"ktioner":6359,"visning":6360,"Ġmeddela":6361,"ĠunderhÃ¥llning":6362,"ĠfÃ¤rsk":6363,"Ġuppskattar":6364,"ĠmÃ¥naders":6365,"Ġstam":6366,"Ġtroll":6367,"Ã¤pp":6368,"Ã¶te":6369,"oh":6370,"Ġavse":6371,"Ġinblandade":6372,"tur":6373,"Ġop":6374,"stem":6375,"ĠBrasilien":6376,"Ġungdomarna":6377,"Ġfysisk":6378,"ĠsÃ¥dÃ¤r":6379,"ĠNakna":6380,"Ġgym":6381,"ĠfÃ¶rfatt":6382,"ĠNHL":6383,"Ġavfall":6384,"Ġoriginal":6385,"aner":6386,"ĠDon":6387,"Ġange":6388,"TA":6389,"Ġrutiner":6390,"ystemet":6391,"wall":6392,"Ġminister":6393,"stol":6394,"fÃ¶retaget":6395,"hopp":6396,"ckade":6397,"ĠSL":6398,"ĠfÃ¤r":6399,"iellt":6400,"Ġsocialdemokrat":6401,"ĠsprÃ¤ng":6402,"jo":6403,"bÃ¥t":6404,"ĠKyrk":6405,"Ġtennis":6406,"ĠtÃ¤cka":6407,"ĠÃ¶nskan":6408,"ĠhÃ¤ngde":6409,"ĠtÃ¤vlar":6410,"ryck":6411,"osa":6412,"rip":6413,"rom":6414,"Ġskrift":6415,"Ġfarliga":6416,"ĠVatten":6417,"ĠImorgon":6418,"ĠlÃ¤gsta":6419,"Ġeffektiva":6420,"trafik":6421,"Ġtrea":6422,"ĠtillfÃ¶r":6423,"ĠdÃ¥varande":6424,"anterna":6425,"spolitiken":6426,"Ġsekreterare":6427,"Ġminnas":6428,"programmet":6429,"svÃ¥rd":6430,"ĠundersÃ¶kningen":6431,"ĠSTOCKHOLM":6432,"Ġalt":6433,"Ġ1975":6434,"ĠRock":6435,"so":6436,"Ã¤lla":6437,"Ġkvartalet":6438,"ĠOrd":6439,"industri":6440,"stund":6441,"Ġ140":6442,"Ġskoj":6443,"ges":6444,"ĠfÃ¶rre":6445,"ĠÃ¤gt":6446,"Ġvaluta":6447,"Ġskiva":6448,"ĠKall":6449,"djur":6450,"Ġstick":6451,"ĠnÃ¤mna":6452,"oppet":6453,"Ġmanliga":6454,"ĠFolkets":6455,"22":6456,"projekt":6457,"Ġtjock":6458,"ĠBal":6459,"teknik":6460,"Ġungdoms":6461,"ĠðŁĻĤ":6462,"ĠvÃ¥ldtÃ¤kt":6463,"Ġbron":6464,"ĠlÃ¤mpliga":6465,"Ġkonstaterade":6466,"ĠpÃ¥verkan":6467,"ĠLindgren":6468,"Ġtimmars":6469,"vÃ¥":6470,"Ġdat":6471,"liv":6472,"Ġbyggde":6473,"au":6474,"nivÃ¥":6475,"Ġod":6476,"ĠKontakta":6477,"ks":6478,"ĠvÃ¤lj":6479,"ĠKÃ¤nner":6480,"KT":6481,"ĠUtredningen":6482,"ĠhalvÃ¥r":6483,"ĠÃĸsterrike":6484,"Ġtrygga":6485,"ĠLika":6486,"Ġport":6487,"ĠÃ¶vergÃ¥ng":6488,"ĠSista":6489,"Ġmaterialet":6490,"Ġsumma":6491,"itionen":6492,"Ġsocken":6493,"Ġundervisningen":6494,"Ġnakna":6495,"ĠfÃ¶rde":6496,"risk":6497,"ĠKalle":6498,"ĠstjÃ¤rn":6499,"ĠAir":6500,"pol":6501,"Ġpressen":6502,"Ġ1986":6503,"Ġregionala":6504,"ĠnÃ¤rmar":6505,"politiken":6506,"Ġminus":6507,"Ġimponerande":6508,"Ġbero":6509,"Ġcentimeter":6510,"ĠBergman":6511,"sid":6512,"star":6513,"Ġdyra":6514,"IG":6515,"ĠJÃ¶nsson":6516,"ĠpopulÃ¤rt":6517,"ĠutgÃ¶ra":6518,"skam":6519,"Ġmedverka":6520,"Ġbredd":6521,"orter":6522,"ĠinlÃ¤gget":6523,"ĠLÃ¶n":6524,"ac":6525,"Ġbus":6526,"ĠomgÃ¥ng":6527,"Ġblandad":6528,"Ġkammar":6529,"Ġavsikt":6530,"Ġdricker":6531,"Ġarter":6532,"Ġantar":6533,"ĠhÃ¶rs":6534,"ĠBilen":6535,"Ġskytt":6536,"Ġmissade":6537,"OS":6538,"Ġ110":6539,"ĠstÃ¤mning":6540,"Ġkal":6541,"rÃ¶relsen":6542,"Ã©ns":6543,"Ġmanga":6544,"Ġexamen":6545,"ile":6546,"Ã¤rk":6547,"Ġyour":6548,"ĠKong":6549,"Ġbacken":6550,"Ġskadad":6551,"ĠslÃ¤pptes":6552,"ĠtillbehÃ¶r":6553,"Ã¤rerna":6554,"ĠVÃ¤rld":6555,"smedel":6556,"vara":6557,"bank":6558,"Ġvardera":6559,"ĠGrand":6560,"ĠsistnÃ¤mnda":6561,"Ġredovisas":6562,"Ġkvinn":6563,"uer":6564,"sfÃ¶rening":6565,"ĠmÃ¥ndags":6566,"Ġbetyda":6567,"Ġskillnader":6568,"Ġnov":6569,"Ġnyfiken":6570,"ĠSovjetunionen":6571,"ci":6572,"ĠDer":6573,"Ġsocialdemokraterna":6574,"stÃ¥nd":6575,"ĠdÃ¤rav":6576,"Ġstiger":6577,"Ġavslutar":6578,"riv":6579,"UND":6580,"ĠSvenskt":6581,"ĠElisabeth":6582,"ĠdÃ¤rigenom":6583,"Ġskulder":6584,"ĠGÃ¤ller":6585,"ĠsnÃ¶n":6586,"ĠfÃ¶redrar":6587,"Ġsite":6588,"bilen":6589,"ĠarbetsmiljÃ¶":6590,"ban":6591,"produktion":6592,"ĠframgÃ¥ngar":6593,"Ġpappers":6594,"sse":6595,"Ġvandring":6596,"Ġind":6597,"sskydd":6598,"Ġtekniskt":6599,"ĠmÃ¶tt":6600,"Ġ81":6601,"ĠfÃ¶rfogande":6602,"Ġkyckling":6603,"ĠJanne":6604,"ĠLu":6605,"Ġtemat":6606,"Ġforum":6607,"Ġanal":6608,"ĠEgentligen":6609,"ĠlÃ¤rande":6610,"ĠfÃ¥nga":6611,"ĠKv":6612,"ĠFotboll":6613,"Ġlokalen":6614,"ĠovanfÃ¶r":6615,"ĠkommunfullmÃ¤ktige":6616,"ĠBegrav":6617,"Ġsynpunkt":6618,"Ġbegreppet":6619,"ĠChrist":6620,"Ġcenter":6621,"ĠÃħker":6622,"Ġtillverkning":6623,"Ġkamrat":6624,"Ġterror":6625,"ledaren":6626,"ĠuppgÃ¥r":6627,"ĠhjÃ¤lpt":6628,"srÃ¤tt":6629,"Ġarbetstid":6630,"Ġliknar":6631,"Ġserier":6632,"ĠHult":6633,"besÃ¶k":6634,"ĠCenter":6635,"ftet":6636,"Ġundrade":6637,"omen":6638,"Ġ93":6639,"ĠfÃ¶rbÃ¤ttring":6640,"ĠfÃ¶rbereda":6641,"Ġkorv":6642,"Ġvinden":6643,"hammar":6644,"ĠJÃ¶rgen":6645,"ĠfÃ¶rsvinna":6646,"ĠPet":6647,"ĠanlÃ¤ggningar":6648,"ĠomgÃ¥ngen":6649,"Ġ1987":6650,"ĠintÃ¤kter":6651,"Ġparter":6652,"ross":6653,"sprÃ¥k":6654,"Ġklarat":6655,"ĠÃ¤garen":6656,"material":6657,"Ġdis":6658,"Ġtrycker":6659,"ĠÌģ":6660,"Ġ1984":6661,"ĠsÃ¤kerstÃ¤lla":6662,"Ġtransporter":6663,"Ġavslutning":6664,"hel":6665,"Ġriktar":6666,"ĠDess":6667,"ĠfÃ¶delsedag":6668,"Ġmaken":6669,"Ġavslut":6670,"Ġtrend":6671,"Ġpersonligen":6672,"ĠvÃ¤cka":6673,"ĠjÃ¤mte":6674,"lista":6675,"Ġintensiv":6676,"Ġutreda":6677,"skolans":6678,"ĠutÃ¥t":6679,"Ġvir":6680,"Ġ070":6681,"Ã¤mning":6682,"Ġ1982":6683,"rÃ¶relse":6684,"ĠfÃ¶rbundet":6685,"Ã¤sta":6686,"Ġskatten":6687,"ĠReal":6688,"Ġgator":6689,"Ġbrun":6690,"Ġalternativt":6691,"Ġpigg":6692,"Ġavslutas":6693,"esl":6694,"gern":6695,"ĠtÃ¤tbefolkat":6696,"Ġ1940":6697,"Ġshopping":6698,"ĠFrida":6699,"ĠDating":6700,"Ġanger":6701,"ĠHo":6702,"ĠStr":6703,"ĠVik":6704,"Ġdjuren":6705,"oth":6706,"ativt":6707,"sverksamhet":6708,"ĠskÃ¶nhet":6709,"Ġdar":6710,"Ġverklig":6711,"otten":6712,"Ġkyl":6713,"Ġvagn":6714,"Ġsplitt":6715,"rÃ¤da":6716,"Ġtillhanda":6717,"Ġ160":6718,"Ġtankarna":6719,"ĠKol":6720,"Ġminnet":6721,"ĠstrÃ¥lande":6722,"oka":6723,"Ġfyllde":6724,"ĠFil":6725,"Ġintag":6726,"ĠsnÃ¤lla":6727,"86":6728,"Ġsaknade":6729,"ĠgodkÃ¤nt":6730,"Ġprodukten":6731,"ĠFamilj":6732,"ĠAx":6733,"ĠÃ¥terkommer":6734,"Ġhittades":6735,"ĠinrÃ¤tt":6736,"ĠJens":6737,"Ġfitta":6738,"ĠFÃ¶re":6739,"delningen":6740,"Ġglobala":6741,"Ġsoldater":6742,"resan":6743,"ĠfÃ¶rbundskapten":6744,"ĠÃĸr":6745,"ĠSy":6746,"ĠlÃ¶k":6747,"organisationen":6748,"Ġlugna":6749,"behandling":6750,"pre":6751,"ĠÃ¶nska":6752,"Ġ130":6753,"Ġkart":6754,"ĠVÃ¤g":6755,"Ġtju":6756,"ĠkÃ¤rn":6757,"ĠplÃ¥t":6758,"sal":6759,"ĠnÃ¤rvaro":6760,"Ġgrip":6761,"kurs":6762,"Ġmusiker":6763,"ĠslÃ¥ss":6764,"ĠKu":6765,"Ġoperation":6766,"Ġtabellen":6767,"Ġkram":6768,"ĠAnd":6769,"ĠTILL":6770,"Ġtank":6771,"sverket":6772,"ĠVisserligen":6773,"Ġursprungliga":6774,"ĠBig":6775,"ah":6776,"Ġgula":6777,"ĠWorld":6778,"ĠfÃ¶refaller":6779,"jÃ¤m":6780,"Ġfransk":6781,"ĠvÃ¤grar":6782,"ĠfÃ¶reningens":6783,"Ġsynas":6784,"llan":6785,"ĠmÃ¶rkt":6786,"Ġlantbruk":6787,"Ġkallades":6788,"ops":6789,"ĠlÃ¤nkar":6790,"ĠarbetslÃ¶sa":6791,"Ġnaken":6792,"Ġrom":6793,"ios":6794,"Ġkommentera":6795,"Ġsiffrorna":6796,"ansvar":6797,"Ġmjuka":6798,"ĠÃ¶vergrepp":6799,"ĠsamrÃ¥d":6800,"ĠWashington":6801,"Ġkvitt":6802,"sol":6803,"ĠsysselsÃ¤ttning":6804,"ĠsÃ¥lt":6805,"Ġtappar":6806,"ĠlÃ¤ger":6807,"iteter":6808,"ĠbegrÃ¤nsat":6809,"Ġsallad":6810,"ĠStats":6811,"istan":6812,"ĠlÃ¤karen":6813,"Ġmiljard":6814,"Ġkollar":6815,"ĠKam":6816,"rikt":6817,"ĠstÃ¤ll":6818,"Ġdrev":6819,"eten":6820,"viken":6821,"CH":6822,"Ġfynd":6823,"fÃ¶rs":6824,"Ġkoka":6825,"ĠHittills":6826,"ĠOskar":6827,"jÃ¤rn":6828,"ĠIda":6829,"Ġsub":6830,"Ġsamarbet":6831,"ĠbestÃ¤mmelserna":6832,"ĠhÃ¤rom":6833,"idae":6834,"Ġflyga":6835,"ĠGull":6836,"ĠSaab":6837,"ĠVictor":6838,"ĠvÃ¤ger":6839,"ĠPetter":6840,"Ġpresent":6841,"sjÃ¶n":6842,"Ġsej":6843,"Ġfacebook":6844,"Ġfemton":6845,"ester":6846,"ĠFull":6847,"ĠbesÃ¶kt":6848,"Ġplaceras":6849,"ĠMargareta":6850,"Ġdiskuteras":6851,"ĠdagslÃ¤get":6852,"ĠnivÃ¥n":6853,"ĠfÃ¶reslagit":6854,"Ġoftare":6855,"Ġlinjen":6856,"Ġ1979":6857,"Ġpartiets":6858,"ĠsÃ¶ta":6859,"mod":6860,"Ġformat":6861,"ĠÃ¥tervÃ¤nda":6862,"Ġtrupp":6863,"ition":6864,"Ġ97":6865,"Ġpenning":6866,"ĠNÃ¤rmast":6867,"ÃĦN":6868,"Ġdagars":6869,"ĠSmÃ¥land":6870,"ĠAmerikansk":6871,"ĠAlex":6872,"Ġlax":6873,"Ġindividuella":6874,"Ġmal":6875,"Ġmom":6876,"Ġutvecklat":6877,"Ġass":6878,"ĠChristina":6879,"pon":6880,"Ġsyfta":6881,"maskiner":6882,"ĠfÃ¶retags":6883,"ĠÃ¥ng":6884,"Ġwebbplatsen":6885,"Ġsyr":6886,"ettan":6887,"Ġlikhet":6888,"ĠNÃ¤rmare":6889,"Ġkungen":6890,"stre":6891,"ĠRÃ¥d":6892,"ĠUddevalla":6893,"Ġdomen":6894,"stopp":6895,"ĠOM":6896,"ĠJulia":6897,"Ġsticker":6898,"Ġfrom":6899,"skontoret":6900,"stra":6901,"slut":6902,"Ġhundratals":6903,"Ġvilt":6904,"ids":6905,"Ġkonkret":6906,"vÃ¤rden":6907,"ĠSEK":6908,"ĠUngdom":6909,"Ġved":6910,"Ġtron":6911,"fÃ¶rvaltningen":6912,"Ġskala":6913,"Ġstack":6914,"Ġperioder":6915,"Ġflest":6916,"Ġfrid":6917,"ĠmÃ¤tt":6918,"uts":6919,"ĠfÃ¶dda":6920,"sbe":6921,"iver":6922,"ĠmjÃ¶l":6923,"Ġ91":6924,"ĠtrÃ¤nat":6925,"ĠfÃ¶rh":6926,"speriod":6927,"Ã¤ngd":6928,"Ġupplevt":6929,"ĠframgÃ¥ngsrika":6930,"Ġtekniker":6931,"dell":6932,"ĠSÃ¶ker":6933,"Ġsag":6934,"stationen":6935,"ĠavgÃ¶r":6936,"Ġminuters":6937,"Ġfly":6938,"ĠfÃ¶reskrifter":6939,"ano":6940,"rift":6941,"ĠbestÃ¤llning":6942,"stein":6943,"vÃ¤gar":6944,"Ġledarskap":6945,"kontoret":6946,"ĠlÃ¤rarna":6947,"Ġleg":6948,"Ġ1976":6949,"pper":6950,"Ġlevererar":6951,"ĠbÃ¤gge":6952,"Ã¥k":6953,"skl":6954,"Ġlyft":6955,"ĠAD":6956,"unden":6957,"Ġkonkur":6958,"ĠsÃ¶":6959,"Ġtelefonen":6960,"Ġ92":6961,"ĠIngemar":6962,"ves":6963,"Ġmedvetna":6964,"ĠInstagram":6965,"Ġpersonlighet":6966,"Ġrak":6967,"bas":6968,"ĠsydÃ¶stra":6969,"serien":6970,"ĠhÃ¶gtid":6971,"ĠFramfÃ¶r":6972,"Ġpanik":6973,"ĠKÃ¤ll":6974,"Ġunikt":6975,"Ġishockey":6976,"ĠKvinnan":6977,"Ġyrk":6978,"Ġkravet":6979,"unds":6980,"ĠkrÃ¤vde":6981,"Ġsticka":6982,"oli":6983,"ĠfÃ¶rresten":6984,"Ġgrus":6985,"Ġambulans":6986,"ĠmÃ¥ngfald":6987,"Ġgat":6988,"uro":6989,"ĠbÃ¶n":6990,"Ġorg":6991,"Ġkraftiga":6992,"Ġvetenskapliga":6993,"strid":6994,"byn":6995,"ĠfÃ¶rare":6996,"ĠVilla":6997,"ĠbedÃ¶ms":6998,"vitt":6999,"Ġfattig":7000,"ĠTitta":7001,"Ġseparat":7002,"Ġriv":7003,"ĠStart":7004,"Ġbetal":7005,"unch":7006,"ĠLouise":7007,"ĠPÃħ":7008,"ĠlÃ¤gen":7009,"Ġkassa":7010,"Ġmedlemskap":7011,"Ġdamm":7012,"Ġtomma":7013,"grad":7014,"Ġjulen":7015,"ĠÃ¥terkommande":7016,"Ġvinsten":7017,"kÃ¶r":7018,"hÃ¥llning":7019,"Ġriksdagens":7020,"hÃ¤ng":7021,"ĠMiljÃ¶":7022,"verken":7023,"delning":7024,"ĠÃĦldre":7025,"ĠAfghanistan":7026,"ordet":7027,"enn":7028,"ĠrÃ¤ttegÃ¥ng":7029,"Ġkonsumtion":7030,"ĠovÃ¤ntat":7031,"ea":7032,"ĠsÃ¤g":7033,"Ġpresentation":7034,"ĠfÃ¶rskott":7035,"ĠJesper":7036,"ledningen":7037,"ĠKV":7038,"Ġsambo":7039,"Ġsanning":7040,"ĠThai":7041,"ĠbrÃ¥k":7042,"fÃ¶ra":7043,"Ġab":7044,"Ġuppt":7045,"ĠfÃ¶rvaltnings":7046,"ĠberÃ¶mda":7047,"avtal":7048,"rats":7049,"sbr":7050,"Ġhemsidan":7051,"ĠPersonal":7052,"smannen":7053,"Äģ":7054,"elsens":7055,"Ġkanon":7056,"Ġomfattas":7057,"center":7058,"ĠmiljÃ¶er":7059,"ĠanvÃ¤nd":7060,"kast":7061,"Ġchock":7062,"ĠhjÃ¤rn":7063,"Ġskolorna":7064,"Ġlivsstil":7065,"ĠBorlÃ¤nge":7066,"ĠfÃ¶lj":7067,"Ġtelefonnummer":7068,"Ġfattas":7069,"Ġroller":7070,"Ġvolym":7071,"sig":7072,"Ġhimlen":7073,"Ġmarginal":7074,"Ġnationell":7075,"Ġbidragit":7076,"Ġ1974":7077,"ĠÃ¤rlig":7078,"ĠjÃ¤mstÃ¤lldhet":7079,"Ġbestod":7080,"andra":7081,"Ġberedda":7082,"ĠSkicka":7083,"ĠGott":7084,"ĠMadrid":7085,"Ġbiblioteket":7086,"Ġ1930":7087,"Ġvaldes":7088,"Ġbesluta":7089,"Ġparker":7090,"slÃ¶sa":7091,"ĠJacob":7092,"giv":7093,"Ġ1968":7094,"Ġfavoriter":7095,"Ġveck":7096,"jÃ¤r":7097,"sbest":7098,"arg":7099,"undersÃ¶kning":7100,"ĠIdrott":7101,"ĠonÃ¶digt":7102,"ĠbrÃ¤nsle":7103,"Ġhandboll":7104,"ĠUte":7105,"Ġlasarett":7106,"Ġgillade":7107,"Ġgitarr":7108,"utbildningen":7109,"sida":7110,"do":7111,"ĠOffic":7112,"ĠRune":7113,"iant":7114,"ĠIndustri":7115,"Ġnegativ":7116,"ĠPR":7117,"Ġgrannar":7118,"Ġavslutades":7119,"Ġrekommendera":7120,"igenom":7121,"ĠSil":7122,"varor":7123,"lÃ¤gg":7124,"Ġapotek":7125,"Ġkorn":7126,"Ġbetong":7127,"ĠLÃ¶":7128,"Ġbasen":7129,"IST":7130,"Ġkonstruktion":7131,"smÃ¤ssigt":7132,"ĠTal":7133,"Ġstall":7134,"Ġfoten":7135,"Ġbarndom":7136,"Ġindustr":7137,"ĠWil":7138,"ĠFrÃ¶lunda":7139,"ĠreligiÃ¶sa":7140,"ĠordfÃ¶randen":7141,"ĠalltjÃ¤mt":7142,"samling":7143,"Ġplacera":7144,"ĠfÃ¶restÃ¤llning":7145,"Ġpresidenten":7146,"Ġmissat":7147,"fer":7148,"ĠLunds":7149,"sprocessen":7150,"ĠbedÃ¶mer":7151,"ĠstÃ¶ld":7152,"ĠStatens":7153,"Ġminskning":7154,"ĠVita":7155,"ĠÃ¶gat":7156,"grÃ¤nsen":7157,"ĠspÃ¤nning":7158,"Ġmissbruk":7159,"fram":7160,"juk":7161,"ĠÃ¶verl":7162,"handling":7163,"ĠmÃ¶ttes":7164,"Ġkastade":7165,"ĠKatarina":7166,"no":7167,"hÃ¥llande":7168,"Ġkonkreta":7169,"kvÃ¤ll":7170,"sna":7171,"Ġskilja":7172,"ĠvÃ¤ljarna":7173,"Ġbyte":7174,"former":7175,"rÃ¤kning":7176,"Ġgra":7177,"Ġarrangemang":7178,"cy":7179,"Ġintet":7180,"ĠCam":7181,"ĠPan":7182,"Ġverksam":7183,"otter":7184,"ENT":7185,"ĠjÃ¤mna":7186,"ĠOK":7187,"ĠfrÃ¤mja":7188,"Ġmejl":7189,"ĠsÃ¤kerligen":7190,"ista":7191,"ĠArena":7192,"Ġrubriken":7193,"ills":7194,"ĠpÃ¥stÃ¥":7195,"uf":7196,"alisering":7197,"ĠBK":7198,"Ġ175":7199,"ĠfÃ¥tal":7200,"Ġhen":7201,"Ġvarvid":7202,"ĠslÃ¤ppt":7203,"Ġbekanta":7204,"handeln":7205,"ĠSon":7206,"Ġhallen":7207,"ĠOve":7208,"ĠfÃ¶tter":7209,"Ġ350":7210,"Ġmissa":7211,"ĠkÃ¶pet":7212,"skal":7213,"Ä«":7214,"Ã¥ring":7215,"lÃ¥t":7216,"Ã¤gen":7217,"ĠNaturligtvis":7218,"Ġbal":7219,"Ġdy":7220,"ĠBromma":7221,"ĠÃ¶verraskande":7222,"parken":7223,"ĠÂ®":7224,"Ġmandat":7225,"jakt":7226,"ĠleverantÃ¶r":7227,"ĠMu":7228,"vo":7229,"ĠbÃ¥tar":7230,"Ġbytte":7231,"ĠglÃ¶mmer":7232,"go":7233,"GA":7234,"bÃ¶cker":7235,"ĠLÃ¶v":7236,"Ġfylld":7237,"Ġpubliceras":7238,"ĠsjÃ¤tte":7239,"Ġprivatpersoner":7240,"ĠskÃ¶ts":7241,"ĠkonstnÃ¤rer":7242,"Ġtjejerna":7243,"ĠanmÃ¤l":7244,"Ġmarknads":7245,"ĠRy":7246,"Ġhemlighet":7247,"Ġdelstaten":7248,"ĠsÃ¥r":7249,"Ġjapanska":7250,"fta":7251,"Ġextrem":7252,"ĠÂ©":7253,"Ġbed":7254,"Ġlysande":7255,"fÃ¶rsÃ¤kring":7256,"gat":7257,"ĠkÃ¤lla":7258,"kanten":7259,"ĠFord":7260,"ĠvÃ¥gade":7261,"rare":7262,"ĠkÃ¤nnedom":7263,"lander":7264,"ĠÃ¤lska":7265,"Ġappen":7266,"issionen":7267,"inister":7268,"ĠportrÃ¤tt":7269,"Ã¤mn":7270,"terade":7271,"ĠGunilla":7272,"ĠPlÃ¶tsligt":7273,"Ġdagis":7274,"Ġbanker":7275,"Ġpermanent":7276,"Ġgifte":7277,"ĠNacka":7278,"ARE":7279,"ND":7280,"gÃ¥":7281,"ĠFack":7282,"Ġmans":7283,"fÃ¤rd":7284,"Ġkro":7285,"Ġkod":7286,"styrelsens":7287,"ssen":7288,"Ġste":7289,"ĠfÃ¶rtjÃ¤nar":7290,"jag":7291,"Ġreformer":7292,"ĠkÃ¥ta":7293,"Ġbildar":7294,"ĠstjÃ¤rnor":7295,"ĠlÃ¤ngden":7296,"Ġtorget":7297,"Ġwebbplatser":7298,"ĠKur":7299,"ĠVan":7300,"ĠTobias":7301,"Ġmedicinska":7302,"sbrott":7303,"ĠbrÃ¤nn":7304,"umma":7305,"ĠAnnie":7306,"ori":7307,"olja":7308,"Ġskogs":7309,"Ġartist":7310,"Ġarkiv":7311,"ĠmÃ¤rk":7312,"ĠKi":7313,"orget":7314,"ĠskÃ¤rgÃ¥rd":7315,"llen":7316,"ĠMr":7317,"ĠupprÃ¤tt":7318,"ĠfÃ¶rekommande":7319,"atiska":7320,"ĠrÃ¶relsen":7321,"ansvarig":7322,"Ġljusa":7323,"bladet":7324,"Ġfonder":7325,"Ġhyll":7326,"23":7327,"Ġparterna":7328,"Ġskal":7329,"UT":7330,"ĠPart":7331,"Ġfigur":7332,"ew":7333,"Ġrepresenterar":7334,"ĠfÃ¶rluster":7335,"ĠVÃ¥rd":7336,"hen":7337,"nummer":7338,"lim":7339,"ĠsjÃ¶nk":7340,"bidrag":7341,"Ġyttrande":7342,"ĠGal":7343,"ĠpremiÃ¤ren":7344,"skv":7345,"ĠRÃ¶":7346,"Ġgymnasie":7347,"Ġproducera":7348,"sund":7349,"Ġhett":7350,"ĠGreen":7351,"olin":7352,"rid":7353,"Ġgruv":7354,"valet":7355,"ĠmÃ¥lvakten":7356,"ĠbelÃ¤gen":7357,"Ġflashback":7358,"Ġansvariga":7359,"Ġkomplett":7360,"ima":7361,"Ġskiv":7362,"Ġsjukdomen":7363,"list":7364,"sko":7365,"ĠFOT":7366,"BER":7367,"ĠBakom":7368,"Ġgrill":7369,"mÃ¶te":7370,"ĠvÃ¤rm":7371,"ĠsÃ¤tts":7372,"ĠSHL":7373,"hol":7374,"Ġmak":7375,"ĠsÃ¥hÃ¤r":7376,"Ġskattes":7377,"ili":7378,"derade":7379,"Ġriket":7380,"ĠDo":7381,"Ġretur":7382,"Ġ1973":7383,"ĠfÃ¶rhÃ¥llandena":7384,"Ġplanerna":7385,"arp":7386,"Ġsvamp":7387,"Ã¤dd":7388,"ĠMid":7389,"ĠmÃ¤ta":7390,"Ġcitron":7391,"Ġkast":7392,"ĠuppstÃ¥":7393,"ĠÃĸstra":7394,"Ġsyftet":7395,"sprogrammet":7396,"VA":7397,"ĠMont":7398,"Ġflygplan":7399,"Ġflygplats":7400,"vr":7401,"Ġbeg":7402,"Ġlyser":7403,"Ġpers":7404,"Ġpsykisk":7405,"STA":7406,"centrum":7407,"Ġdryck":7408,"Ġmedie":7409,"ĠfÃ¶rmÃ¥gan":7410,"ĠnÃ¤mnas":7411,"ĠDra":7412,"drar":7413,"ĠStina":7414,"ionerna":7415,"ĠStat":7416,"Ġrestaurangen":7417,"Ġfinaste":7418,"Ġlands":7419,"ĠkÃ¤llor":7420,"cha":7421,"ĠstÃ¥ende":7422,"Ġrep":7423,"Ġ1983":7424,"maren":7425,"Ġskriven":7426,"Ġappar":7427,"fÃ¤r":7428,"Ġhimmel":7429,"ĠManchester":7430,"Ġts":7431,"kostnader":7432,"Ġ1981":7433,"skostnader":7434,"ĠÃ¶ppnas":7435,"Ġ1977":7436,"ĠAli":7437,"Ġhemliga":7438,"supp":7439,"ĠHy":7440,"ĠtillgÃ¥ngar":7441,"Ġmordet":7442,"Ġodling":7443,"ismens":7444,"ĠfÃ¤rgen":7445,"ĠstÃ¤mma":7446,"Ġregister":7447,"Ġmkt":7448,"Ġdansa":7449,"Ġcyklar":7450,"LA":7451,"ĠfÃ¶rhandlingarna":7452,"Ã¶kning":7453,"ĠAlice":7454,"Ġkristen":7455,"Ġdispon":7456,"stÃ¥":7457,"add":7458,"ĠMÃ¤nniskor":7459,"ĠrÃ¶stade":7460,"ĠpÃ¤r":7461,"Ġhatar":7462,"ologisk":7463,"ĠtÃ¥l":7464,"oper":7465,"ĠmÃ¤stare":7466,"Ġflick":7467,"Ġvilda":7468,"ĠSmÃ¥":7469,"Ġutlandet":7470,"ĠvÃ¤d":7471,"Ġpresskonferens":7472,"stÃ¥ndet":7473,"ĠrÃ¥kade":7474,"Ġingick":7475,"ĠSture":7476,"Ġredovisning":7477,"hov":7478,"hÃ¤ll":7479,"ĠBR":7480,"ĠmÃ¤ngden":7481,"ĠvederbÃ¶rande":7482,"ĠbÃ¶ckerna":7483,"Ġtidpunkt":7484,"Ġskickat":7485,"Ġrullar":7486,"ĠTer":7487,"ads":7488,"ĠLid":7489,"ĠSun":7490,"ĠDejting":7491,"Ġ170":7492,"Ġdjupa":7493,"smÃ¶te":7494,"Ġbosatt":7495,"ĠBad":7496,"Ġkli":7497,"Ġhum":7498,"Ġhandeln":7499,"ubb":7500,"ĠSÃ¤":7501,"Ġbarnets":7502,"ĠtonÃ¥r":7503,"planen":7504,"Ġpartiled":7505,"Ġkombineras":7506,"ĠtÃ¤nder":7507,"ografi":7508,"bert":7509,"Ġprotest":7510,"ĠvÃ¤rlds":7511,"Ġmix":7512,"ĠÃ¥klagaren":7513,"ĠDonald":7514,"ips":7515,"hav":7516,"Ġbalkong":7517,"Ġnykter":7518,"ĠLindstrÃ¶m":7519,"Ġrull":7520,"ĠansÃ¥gs":7521,"ĠavsevÃ¤rt":7522,"Ġbevara":7523,"intresse":7524,"ĠgrÃ¤dde":7525,"Ġbrinner":7526,"vill":7527,"ĠrÃ¶star":7528,"iot":7529,"ĠStrax":7530,"oden":7531,"Ġgrymt":7532,"Ġration":7533,"tyskland":7534,"Ġspecifika":7535,"priser":7536,"Ġrida":7537,"Ġmedverkar":7538,"Ã¤mp":7539,"person":7540,"Ġpojken":7541,"ĠpensionÃ¤rer":7542,"dre":7543,"Ġvistas":7544,"rit":7545,"ĠGeorg":7546,"ĠÃ¶verhuvudtaget":7547,"Ġmedalj":7548,"Ġfenomen":7549,"Ġpublic":7550,"ĠÃ¶ron":7551,"ION":7552,"Ġvideor":7553,"ĠCharlotte":7554,"byggnaden":7555,"ĠThaimassage":7556,"Ġbaserat":7557,"Ġkostade":7558,"ĠService":7559,"ĠrÃ¥kar":7560,"Ġutbildningar":7561,"Ġthis":7562,"Ġuppstod":7563,"Ġanbud":7564,"ĠRad":7565,"Ġsyntes":7566,"ĠPriset":7567,"tering":7568,"Ġadministration":7569,"yrk":7570,"ĠIvar":7571,"ĠfÃ¶rÃ¤ndrats":7572,"Ġhjul":7573,"ĠLiksom":7574,"ĠvÃ¤rst":7575,"ĠsÃ¤ttas":7576,"istr":7577,"ĠhÃ¤ll":7578,"Ġ1978":7579,"Ġmaste":7580,"Ġklev":7581,"Ġtredjedel":7582,"ĠÃ¶vergripande":7583,"ĠSÃĸ":7584,"atÃ¶r":7585,"Ġskyldighet":7586,"ĠkarriÃ¤ren":7587,"jud":7588,"Ġpiano":7589,"ĠlÃ¥ngsiktigt":7590,"ĠfÃ¶ren":7591,"ĠGP":7592,"enhet":7593,"Ġvakna":7594,"Ġfat":7595,"sbygg":7596,"ĠSwedish":7597,"Ġutredningar":7598,"kap":7599,"Ġallians":7600,"ĠGÃ¶taland":7601,"ĠtÃ¤cker":7602,"ĠCha":7603,"ĠStaffan":7604,"ĠgenomfÃ¶rs":7605,"ĠÃ¶verleva":7606,"fÃ¶rsÃ¤ljning":7607,"ĠKlart":7608,"ĠJohnson":7609,"ĠAk":7610,"skort":7611,"Ġsnack":7612,"ĠsÃ¤nkt":7613,"Ġnorm":7614,"Ġstud":7615,"Ġkryss":7616,"Ġtri":7617,"ĠslÃ¤pps":7618,"ĠFinans":7619,"Ġuppfyller":7620,"esa":7621,"Ġplugga":7622,"klÃ¤der":7623,"stillstÃ¥nd":7624,"lek":7625,"Ġdemokratin":7626,"Ġjo":7627,"Ġkvinnlig":7628,"Ġbristande":7629,"Ġrust":7630,"Ġbilarna":7631,"ullen":7632,"ĠÃħkesson":7633,"Ġcity":7634,"Ġskrek":7635,"ĠfÃ¶rsvunnit":7636,"ĠvÃ¤rda":7637,"Ġvardagsrum":7638,"ĠfÃ¶restÃ¤llningen":7639,"fast":7640,"Ġinformera":7641,"Ġheder":7642,"Ġinfrastruktur":7643,"Ġskepp":7644,"Ġmottag":7645,"ĠPort":7646,"ĠtvÃ¤r":7647,"berga":7648,"Ġmissar":7649,"ĠAlliansen":7650,"Ġkontoret":7651,"sfÃ¶rbundet":7652,"eller":7653,"Ã¤garna":7654,"Ġligan":7655,"yst":7656,"hs":7657,"Ġbloggar":7658,"ĠPiteÃ¥":7659,"Ġsamtalet":7660,"iller":7661,"Ġoffentligt":7662,"ĠCO":7663,"ĠFer":7664,"ĠHolland":7665,"loppet":7666,"mot":7667,"vers":7668,"Ġdiskussionen":7669,"institut":7670,"Ġchefer":7671,"ĠVÃ¤nsterpartiet":7672,"Ġlyssnade":7673,"Ġprom":7674,"Ġflyger":7675,"vad":7676,"ĠtillhÃ¶rande":7677,"ĠPress":7678,"dra":7679,"ĠAlbert":7680,"ĠtrÃ¤nings":7681,"splaner":7682,"Ġturister":7683,"Ġutvalda":7684,"ĠMED":7685,"ĠBollnÃ¤s":7686,"Ġock":7687,"Ġkoppling":7688,"Ġerotisk":7689,"ĠJean":7690,"Ġklubbens":7691,"Ġho":7692,"ĠHen":7693,"ĠsmÃ¤ll":7694,"ĠrÃ¶rde":7695,"ĠdÃ¶rrar":7696,"arv":7697,"Ġcivila":7698,"ĠomgÃ¥ende":7699,"ĠtillhÃ¶rde":7700,"ase":7701,"Ġkrist":7702,"ĠÃ¥rsmÃ¶te":7703,"Ġinleds":7704,"Ġ1600":7705,"vapen":7706,"ordningen":7707,"ĠMiss":7708,"ĠCecilia":7709,"Ġeleven":7710,"Ã¤tta":7711,"Ġkonsumenter":7712,"ĠavslÃ¶ja":7713,"Ġreagerar":7714,"Ġinterna":7715,"Ġprestation":7716,"domen":7717,"lo":7718,"ĠseriÃ¶s":7719,"Ġkombinera":7720,"Ġkritisk":7721,"Ġtermin":7722,"stens":7723,"ĠÃ¶verraskning":7724,"Ġlandskapet":7725,"ĠMus":7726,"ĠNytt":7727,"Ġfukt":7728,"ĠsammantrÃ¤de":7729,"ĠfÃ¶rf":7730,"ÃŃ":7731,"Ġintervjuer":7732,"sdag":7733,"idan":7734,"acken":7735,"skrivna":7736,"draget":7737,"Ġkrisen":7738,"ulla":7739,"bra":7740,"Ġ1971":7741,"ĠbekrÃ¤ftar":7742,"banken":7743,"sland":7744,"jÃ¤l":7745,"Ġ1972":7746,"ĠlÃ¶per":7747,"Ġblomster":7748,"Ġmyndigheten":7749,"ikan":7750,"iserad":7751,"Ġupphov":7752,"press":7753,"ĠgÃ¥ngna":7754,"ĠÂ¤":7755,"Ġkontakten":7756,"park":7757,"Ġsektorn":7758,"Ġmuslimer":7759,"Ġskadades":7760,"ils":7761,"Ġtydligare":7762,"Ġtomten":7763,"match":7764,"stan":7765,"Ġordningen":7766,"ĠPC":7767,"Ġnye":7768,"Ġhoppar":7769,"Ġkok":7770,"orerna":7771,"di":7772,"Ġbranden":7773,"ĠuppvÃ¤xt":7774,"skade":7775,"Ġstiga":7776,"ĠJord":7777,"sla":7778,"mt":7779,"Ġkoncept":7780,"Ġgaranterat":7781,"Ġvoro":7782,"ĠPia":7783,"atis":7784,"ĠLÃ¶r":7785,"Ġmatte":7786,"Ã¶ll":7787,"ĠrÃ¤ttvis":7788,"Ġangrepp":7789,"byt":7790,"ĠstÃ¤da":7791,"kontor":7792,"ĠfullmÃ¤ktige":7793,"Ġavancerade":7794,"ĠAdolf":7795,"Ġsvaga":7796,"Ġkyrkor":7797,"rÃ¤det":7798,"Ġkommissionen":7799,"inns":7800,"punkter":7801,"ĠtrÃ¥d":7802,"ath":7803,"ĠjÃ¤tt":7804,"kommun":7805,"ĠNyhet":7806,"Ġsprider":7807,"Ġfatt":7808,"ĠfÃ¶rsÃ¤ljnings":7809,"budet":7810,"Ġfallit":7811,"Ġutslag":7812,"ĠstÃ¤d":7813,"ĠÃĦntligen":7814,"ĠfÃ¶rel":7815,"ĠvÃ¤garna":7816,"hamns":7817,"ĠSyn":7818,"ĠmisstÃ¤nks":7819,"Ġambition":7820,"sprojekt":7821,"lagd":7822,"Ġuttalanden":7823,"ĠPen":7824,"ĠtrÃ¤ffades":7825,"Ġporno":7826,"Ġsamarbetar":7827,"ĠfÃ¶reslÃ¥":7828,"Ġ125":7829,"ĠbegrÃ¤nsa":7830,"ĠSÃ¥dana":7831,"best":7832,"ĠgenomfÃ¶r":7833,"skrav":7834,"urer":7835,"klag":7836,"Ġlades":7837,"sdagen":7838,"ĠTri":7839,"ĠAs":7840,"alla":7841,"ĠGlÃ¶m":7842,"Ġkontrollen":7843,"ĠkvÃ¤llens":7844,"ĠMol":7845,"Ġfris":7846,"Ġlovat":7847,"ĠtillrÃ¤cklig":7848,"ĠFC":7849,"Ġ1967":7850,"ĠMarianne":7851,"ssam":7852,"Ġkonsten":7853,"ĠNational":7854,"ĠÃ¤gnar":7855,"ĠfristÃ¥ende":7856,"ĠstÃ¤nger":7857,"ĠHandel":7858,"EB":7859,"ĠFilip":7860,"Ġguide":7861,"ĠÃ¤l":7862,"Ġtabell":7863,"Ġget":7864,"roll":7865,"Ġupphandling":7866,"Ġ1965":7867,"Ġplacerade":7868,"ement":7869,"ĠÃ¶vningar":7870,"ĠLas":7871,"imm":7872,"ĠtillÃ¤mpning":7873,"Ġyng":7874,"fÃ¤st":7875,"Ġreservation":7876,"Ġorkade":7877,"SB":7878,"ĠGay":7879,"Ġdeltagit":7880,"Ġvanligen":7881,"ĠMell":7882,"ĠIs":7883,"ĠMonica":7884,"ĠmÃ¤nnisk":7885,"Ġeffekten":7886,"ocka":7887,"Ġorgel":7888,"ĠPalme":7889,"heim":7890,"angen":7891,"lÃ¤ndska":7892,"esp":7893,"hantering":7894,"resultat":7895,"Ġvision":7896,"skrifter":7897,"ĠBu":7898,"gifter":7899,"Ġutbyte":7900,"gra":7901,"Ġengelsk":7902,"ĠglÃ¶m":7903,"ight":7904,"Ġlu":7905,"ua":7906,"Ġkonflikter":7907,"Ġgarage":7908,"ĠFredag":7909,"ĠSMS":7910,"Ġallsvenska":7911,"Ġomfatta":7912,"Ġhektar":7913,"gjort":7914,"Ġflyttas":7915,"ĠnervÃ¶s":7916,"Ġfallen":7917,"ĠSydafrika":7918,"Ġdiskuterar":7919,"linjen":7920,"ĠTillsÃ¤tt":7921,"ĠPlus":7922,"Ġ1969":7923,"hemmet":7924,"ĠBeck":7925,"ĠBarcelona":7926,"ĠRoland":7927,"fÃ¶rslag":7928,"Ġalternativet":7929,"ĠupptÃ¤cker":7930,"Ġkritiken":7931,"Ġsupport":7932,"Ġprinciper":7933,"ĠSebastian":7934,"sÃ¥ng":7935,"Ġtimmen":7936,"ĠOBS":7937,"Ġbef":7938,"ĠfÃ¶rrÃ¥d":7939,"ĠHugo":7940,"ĠstÃ¤ngt":7941,"Ġ1920":7942,"SSON":7943,"ĠbefÃ¤l":7944,"ĠFal":7945,"Ġfattade":7946,"Ġparken":7947,"Ġkyrkans":7948,"Ġvaknar":7949,"Ġsiffran":7950,"stig":7951,"ĠTrafikverket":7952,"Ġteori":7953,"Ġdrabbades":7954,"ĠfÃ¶rvÃ¤rv":7955,"ĠSS":7956,"Ġlt":7957,"Ġplay":7958,"Ġstatlig":7959,"Ġhamnen":7960,"ĠfÃ¶rÃ¤lder":7961,"byrÃ¥":7962,"ĠUngern":7963,"ode":7964,"ĠspÃ¥ret":7965,"vÃ¤n":7966,"ĠVAR":7967,"ĠJÃ¤r":7968,"ĠEbba":7969,"sbolaget":7970,"vert":7971,"Ġklimatet":7972,"Ġkammaren":7973,"kÃ¥r":7974,"Ġytt":7975,"Ġdjupare":7976,"Ġhandlat":7977,"emÃ¥l":7978,"rag":7979,"arter":7980,"Ġdomare":7981,"Ġpotential":7982,"stÃ¤llt":7983,"Ġlandstinget":7984,"uppdrag":7985,"Ġtorsdags":7986,"ĠVall":7987,"Ġidentifiera":7988,"historia":7989,"ĠTidningen":7990,"Ġakten":7991,"ĠTips":7992,"ĠdÃ¤ribland":7993,"bes":7994,"ĠOmkring":7995,"Ġarbetsgivaren":7996,"Ġmedvetet":7997,"ĠÃ¤gs":7998,"utan":7999,"ĠvÃ¤x":8000,"ĠFamiljen":8001,"ĠUl":8002,"ĠHot":8003,"ĠtÃ¤nkas":8004,"Ġpil":8005,"Ġinkluderar":8006,"ĠstÃ¶det":8007,"02":8008,"ĠZlatan":8009,"eds":8010,"ĠlÃ¤sning":8011,"Ã¤nsle":8012,"Ġstarter":8013,"ĠframstÃ¤llning":8014,"Ġmoment":8015,"ILL":8016,"ĠgenomfÃ¶rdes":8017,"Ġbudgeten":8018,"ĠOne":8019,"ĠsÃ¶n":8020,"Ġsidorna":8021,"Ġlevt":8022,"ĠberÃ¤ttelsen":8023,"Ġtalang":8024,"ĠSO":8025,"Ġkassan":8026,"ĠMagnusson":8027,"ĠCal":8028,"Ġerotiska":8029,"ĠMarkus":8030,"gÃ¤r":8031,"ĠBÃ¶rje":8032,"ney":8033,"kes":8034,"Ġdos":8035,"ĠMiljÃ¶partiet":8036,"Ġsamlades":8037,"ĠHill":8038,"gift":8039,"ĠFÃ¶rslaget":8040,"Ġfinnes":8041,"Ġhantering":8042,"Ġheders":8043,"garna":8044,"ĠID":8045,"ĠnulÃ¤get":8046,"ĠrÃ¤kning":8047,"ĠokÃ¤nd":8048,"konst":8049,"mak":8050,"Ġtappa":8051,"ĠAlf":8052,"Ġutnyttjas":8053,"Ġdoft":8054,"slig":8055,"Ġuppfattningen":8056,"Ġutbyggnad":8057,"ĠÃ¤fven":8058,"ĠLeksand":8059,"ifrÃ¥n":8060,"Ġvarefter":8061,"ĠFrÃ¥ga":8062,"Ġstrider":8063,"Ġplaneras":8064,"ĠStort":8065,"ĠsÃ¤ljare":8066,"ĠKL":8067,"Ġarmen":8068,"Ġparlamentet":8069,"Ġstu":8070,"Ġutb":8071,"Ġkongress":8072,"ĠTeater":8073,"Ġhed":8074,"ĠÃ¤ra":8075,"jord":8076,"ĠerhÃ¥lla":8077,"Ġdun":8078,"ĠomgÃ¥ngar":8079,"Ġep":8080,"Ġfrans":8081,"ĠÃ¥l":8082,"ĠstÃ¶rt":8083,"verkets":8084,"ĠsamhÃ¤llen":8085,"Ġtaxi":8086,"Ġoh":8087,"ĠKiruna":8088,"ĠfÃ¥glar":8089,"ĠvÃ¤ckt":8090,"err":8091,"Ġtil":8092,"ĠrÃ¥det":8093,"ĠframstÃ¥r":8094,"Ġmission":8095,"Ã¶ter":8096,"nell":8097,"ĠÃ¤ndrade":8098,"ĠnÃ¤":8099,"ĠturnÃ©":8100,"asa":8101,"ĠFA":8102,"Ġstolta":8103,"Ġursprungligen":8104,"Ġbedriver":8105,"ĠTorsten":8106,"Ġbildas":8107,"dags":8108,"ĠHasse":8109,"Ġannonsen":8110,"ĠUT":8111,"Ġtryggt":8112,"ĠmÃ¥lar":8113,"ĠNamnet":8114,"tals":8115,"ĠCasino":8116,"paket":8117,"Ġlovade":8118,"gre":8119,"Ġinspekt":8120,"Ġsop":8121,"ides":8122,"lÃ¤gga":8123,"ment":8124,"ĠUPP":8125,"64":8126,"Ġtackade":8127,"Ġrymd":8128,"Ġfyll":8129,"ĠHollywood":8130,"Ġolycka":8131,"ĠVictoria":8132,"ĠfÃ¶reslog":8133,"Ġsparar":8134,"folk":8135,"itar":8136,"sbolag":8137,"Ġfaktor":8138,"Ġpolism":8139,"Ġvariant":8140,"pi":8141,"Ġfoster":8142,"unga":8143,"ĠPass":8144,"ĠCD":8145,"ĠCenterpartiet":8146,"Ġpassagerare":8147,"ĠSel":8148,"Ġ1945":8149,"ĠBes":8150,"Ġkritiska":8151,"Ã¶da":8152,"ĠNorrbotten":8153,"Ġspekul":8154,"Ġspetsen":8155,"fÃ¶rbundets":8156,"Ġangivna":8157,"Ġanalyser":8158,"ĠBelgien":8159,"ĠfÃ¶rebyggande":8160,"ĠHalland":8161,"ĠvÃ¤xel":8162,"Ġkillarna":8163,"livet":8164,"ĠPat":8165,"Ġdal":8166,"ĠPlay":8167,"ĠhÃ¤lsade":8168,"Ġjunior":8169,"Ġbeslutar":8170,"organ":8171,"fÃ¤rg":8172,"ĠInger":8173,"Ġmysig":8174,"ĠrÃ¤k":8175,"ĠbÃ¶ter":8176,"bygg":8177,"ĠbekvÃ¤mt":8178,"ĠtrÃ¶st":8179,"ĠÃ¶nskade":8180,"ĠKontakt":8181,"Ġfokuserar":8182,"skolor":8183,"Ġlivets":8184,"Ġonsdags":8185,"nytt":8186,"Ġlim":8187,"ĠMogna":8188,"ĠThailand":8189,"ĠFÃ¶rsvar":8190,"marknad":8191,"ĠnÃ¤tter":8192,"ĠJÃ¶nkÃ¶pings":8193,"rer":8194,"ĠrÃ¤ttvisa":8195,"ĠTelefon":8196,"ĠBert":8197,"ierade":8198,"ĠkÃ¤ll":8199,"Ġbeslag":8200,"Ġfrik":8201,"ĠLundberg":8202,"Ġdirekta":8203,"ĠsjÃ¤lvmord":8204,"Ġsmidigt":8205,"spris":8206,"Ġupprepade":8207,"Ġrekrytering":8208,"Ġcykla":8209,"oga":8210,"ĠAlfred":8211,"ĠbehÃ¥ll":8212,"Ġintegration":8213,"sperioden":8214,"lle":8215,"Ġutformning":8216,"Ġdrabbar":8217,"ĠBL":8218,"Ġprakt":8219,"Ġhava":8220,"ĠtillfredsstÃ¤llande":8221,"Ġpen":8222,"Ġavs":8223,"ĠLandskrona":8224,"Ġavsnittet":8225,"Ġintensivt":8226,"chans":8227,"ĠBon":8228,"Ġstycke":8229,"Ġglatt":8230,"Ġbarna":8231,"Ġhusen":8232,"seftermiddagen":8233,"ĠtillfÃ¤lliga":8234,"Ġmatematik":8235,"ĠstrÃ¤cka":8236,"Ġlat":8237,"sikt":8238,"ĠBjÃ¶rklund":8239,"Ġble":8240,"ivÃ¥":8241,"Ġsatsningar":8242,"ograf":8243,"ĠAP":8244,"vens":8245,"ĠhÃ¥llbarhet":8246,"ĠTorbjÃ¶rn":8247,"sÃ¶ver":8248,"Ġmynt":8249,"ĠSlut":8250,"Ġtidens":8251,"Ġanknytning":8252,"line":8253,"olt":8254,"Ã¥ter":8255,"amin":8256,"takt":8257,"ĠAnal":8258,"Ġlidande":8259,"rupp":8260,"ĠFrid":8261,"hal":8262,"Ġleksaker":8263,"ĠokÃ¤nda":8264,"ĠjÃ¤mnt":8265,"Ġbytt":8266,"asen":8267,"Ġhindrar":8268,"alten":8269,"ĠvÃ¤ggar":8270,"gÃ¶ra":8271,"ĠKod":8272,"amb":8273,"Ġkat":8274,"ĠLive":8275,"Ġdyka":8276,"jas":8277,"ĠvÃ¤nlig":8278,"vÃ¤rme":8279,"ĠÃ¥ldrar":8280,"stÃ¤llas":8281,"aterna":8282,"position":8283,"Ġmur":8284,"ld":8285,"Ġblicken":8286,"satte":8287,"ĠSju":8288,"Ġslaget":8289,"ĠframgÃ¥ngsrik":8290,"Ġkontra":8291,"Ġthat":8292,"Ġkollektiv":8293,"Ġtraditionell":8294,"ĠMia":8295,"Ġmarin":8296,"Ġfarten":8297,"ĠKe":8298,"stav":8299,"ĠInternational":8300,"ĠhÃ¤vda":8301,"ĠAlm":8302,"Ġenerg":8303,"Ã¤gga":8304,"Ġinstitut":8305,"Ġopinion":8306,"ĠUng":8307,"Ġbes":8308,"ĠhÃ¶jning":8309,"Ġuniversitetet":8310,"ĠMad":8311,"ĠfÃ¶rsiktig":8312,"Ġmage":8313,"Ã¤ckt":8314,"ysningar":8315,"ĠingÃ¥ende":8316,"dering":8317,"ovic":8318,"ĠWik":8319,"ĠrÃ¶relser":8320,"central":8321,"ĠhemifrÃ¥n":8322,"Ġslump":8323,"ĠIII":8324,"givning":8325,"ĠHorn":8326,"ĠgÃ¥va":8327,"ĠHockey":8328,"Ã¤nkande":8329,"Ġdennes":8330,"Ġdop":8331,"ĠvÃ¤grade":8332,"sberg":8333,"ĠBergstrÃ¶m":8334,"ĠWa":8335,"Ġgenombrott":8336,"ĠEg":8337,"ĠJO":8338,"Ġbegrav":8339,"Ġflygplatsen":8340,"ene":8341,"olf":8342,"ĠÃ¶ga":8343,"frÃ¥n":8344,"ĠUppl":8345,"ĠCl":8346,"Ã¥rs":8347,"Ġhemmalaget":8348,"Ġkategorier":8349,"Ã¤vling":8350,"utrustning":8351,"ĠstÃ¤mningen":8352,"Ġsil":8353,"ĠBli":8354,"ĠOpen":8355,"komma":8356,"Ðµ":8357,"ĠAmatÃ¶r":8358,"ĠanlÃ¤ggningen":8359,"ĠsÃ¤nder":8360,"ĠFors":8361,"ĠsÃ¤songer":8362,"ĠfÃ¶rekommit":8363,"ĠtingsrÃ¤tten":8364,"ĠLÃ¤tt":8365,"OT":8366,"etts":8367,"Ġbett":8368,"Ġtisdags":8369,"Ġhandikapp":8370,"Ġlyck":8371,"ng":8372,"ĠstÃ¶tt":8373,"Ġtextil":8374,"ĠfÃ¶restÃ¤llningar":8375,"skriv":8376,"Ġstigit":8377,"Ġjulafton":8378,"IC":8379,"Ġvarierande":8380,"Ġtiderna":8381,"ĠgÃ¤nget":8382,"Ġgu":8383,"EC":8384,"ĠdÃ¶ms":8385,"inst":8386,"Ġskilj":8387,"ĠVit":8388,"Ġstryk":8389,"Ġbelysning":8390,"fabrik":8391,"Ġsjunde":8392,"Ġhalvleken":8393,"Ġlapp":8394,"boll":8395,"ĠNobel":8396,"Ġsiffra":8397,"ĠAngeles":8398,"ĠtvÃ¤tta":8399,"Ġinstitution":8400,"stil":8401,"ĠVÃ¤ldigt":8402,"Ã¤nderna":8403,"partiets":8404,"Ġhuvudstad":8405,"Ġpersonerna":8406,"ĠbegrÃ¤nsade":8407,"Ġobefolkad":8408,"Ġengagerade":8409,"bol":8410,"Ġmus":8411,"Ġkontanter":8412,"anken":8413,"Ġkretsar":8414,"ĠAstrid":8415,"ĠSpeciellt":8416,"nare":8417,"Ġbomull":8418,"Ġsexleksaker":8419,"ĠCol":8420,"ĠTR":8421,"ckt":8422,"Ġtroligt":8423,"ico":8424,"Ġhop":8425,"Ġkarl":8426,"ĠstÃ¤m":8427,"ĠhÃ¤starna":8428,"ligheterna":8429,"ĠangelÃ¤get":8430,"ĠTÃ¤by":8431,"Ġdrack":8432,"Ġsmula":8433,"ĠtonÃ¥ring":8434,"hagen":8435,"mon":8436,"Ġpe":8437,"vÃ¤xter":8438,"Ġhotar":8439,"ÃħR":8440,"Ġskidor":8441,"Ġlicens":8442,"ĠvÃ¤cker":8443,"ĠMÃ¥":8444,"Ġsmal":8445,"ĠmÃ¶rkret":8446,"ror":8447,"65":8448,"Ġford":8449,"brist":8450,"Ġsorters":8451,"ĠCamilla":8452,"sÃ¶k":8453,"ĠmÃ¤nniskans":8454,"ĠsjÃ¶m":8455,"ĠgodkÃ¤nd":8456,"Ġmetoden":8457,"Ġmedger":8458,"ĠtjÃ¤nstem":8459,"jon":8460,"ĠGro":8461,"ĠbekvÃ¤m":8462,"ĠWill":8463,"ĠmÃ¤rkte":8464,"Ġsmarta":8465,"Ġorsaker":8466,"ĠYstad":8467,"anne":8468,"Ġpor":8469,"Ġhistorier":8470,"ĠSÃ¶ndag":8471,"fÃ¤ll":8472,"Ġinvestera":8473,"Ġevent":8474,"Ġed":8475,"Ġhypotekslan":8476,"ĠlÃ¥ngsiktiga":8477,"ĠAmanda":8478,"Ġbeh":8479,"ĠÃ¥skÃ¥dare":8480,"ĠJessica":8481,"Ġtvingats":8482,"vagn":8483,"ĠsÃ¥na":8484,"aker":8485,"Ġkaos":8486,"byrÃ¥n":8487,"ĠhjÃ¤lpmedel":8488,"ĠstÃ¤derna":8489,"ĠKR":8490,"Ġtobak":8491,"ĠinfÃ¶rdes":8492,"ĠHV":8493,"ĠbegÃ¤rt":8494,"Ã¤ns":8495,"Ġpassande":8496,"ĠHuddinge":8497,"ole":8498,"ĠAM":8499,"Ġregistrera":8500,"ĠuppfÃ¶ljning":8501,"skottet":8502,"ĠLove":8503,"Ġvak":8504,"ĠoxÃ¥":8505,"Ġspecialist":8506,"Ġpostadress":8507,"Ġklippa":8508,"atorn":8509,"Ġir":8510,"Ġtaga":8511,"ĠinnehÃ¶ll":8512,"Ġtestat":8513,"Ġ1964":8514,"Ġforskningen":8515,"ĠPolis":8516,"ĠfÃ¥ngar":8517,"ĠlÃ¤ro":8518,"Ġdon":8519,"Ġil":8520,"Ġomgivande":8521,"sparken":8522,"Ġpasserar":8523,"ĠLivet":8524,"ĠPelle":8525,"ĠfrÃ¤sch":8526,"ĠRyd":8527,"utskottet":8528,"ĠlÃ¤raren":8529,"ĠbestÃ¥":8530,"inas":8531,"ĠHotell":8532,"ĠklÃ¤":8533,"sÃ¥l":8534,"Ġtorka":8535,"ĠStÃ¤ll":8536,"ĠNumera":8537,"ĠerkÃ¤nner":8538,"Ġanalysera":8539,"lÃ¤ggningen":8540,"ĠKing":8541,"ĠÃ¶verskott":8542,"Ġreform":8543,"Ġvisning":8544,"Ġkla":8545,"Ġutvid":8546,"ĠavgÃ¶rs":8547,"ĠAnmÃ¤lan":8548,"ĠBÃ¤st":8549,"ĠstjÃ¤rna":8550,"ĠfÃ¶rstÃ¶r":8551,"ĠÃ¥tervÃ¤nde":8552,"Ġgrym":8553,"ĠsvÃ¤r":8554,"Ġkvalet":8555,"ĠAkt":8556,"Ġinstitutioner":8557,"sfÃ¶reningen":8558,"stor":8559,"ĠfÃ¶rsvars":8560,"ĠÃ¤lg":8561,"ĠmÃ¤":8562,"ĠPappa":8563,"ĠfrÃ¶ken":8564,"Ġminoritet":8565,"Ġfans":8566,"ĠtillÃ¤gger":8567,"mal":8568,"namnet":8569,"flytt":8570,"ĠYou":8571,"ĠomrÃ¥dena":8572,"Ġhemskt":8573,"Ġnjuter":8574,"Ġ2021":8575,"iger":8576,"ĠfÃ¤ltet":8577,"agt":8578,"Ġbetrakt":8579,"ĠHenry":8580,"ĠSÃ¶derhamn":8581,"ĠPh":8582,"gÃ¶rande":8583,"skatten":8584,"Ġelement":8585,"Ġanta":8586,"rÃ¶":8587,"Ġgamle":8588,"ĠLÃ¶Ã¶f":8589,"ĠÃ¥terfinns":8590,"Ġkusten":8591,"ĠSÃ¥g":8592,"Ġdiesel":8593,"Ġavsk":8594,"ĠSAS":8595,"Ġreportage":8596,"Ġkrit":8597,"Ġmanus":8598,"ĠsjÃ¤lvfÃ¶rtroende":8599,"Ġskratta":8600,"Ġfestival":8601,"ĠAsien":8602,"ĠhÃ¶stens":8603,"sbyrÃ¥n":8604,"Ġskrattade":8605,"Ġtillverkar":8606,"Ġledar":8607,"ĠOtto":8608,"ĠInne":8609,"nam":8610,"ĠrÃ¥dande":8611,"eby":8612,"yrkan":8613,"ĠForsberg":8614,"ĠGÃ¶ta":8615,"ance":8616,"Ġtiotal":8617,"Ġbyggnads":8618,"Ġundra":8619,"Ġomgivning":8620,"Ġgrekiska":8621,"Ġspelaren":8622,"ĠvÃ¤rnplikt":8623,"information":8624,"ffe":8625,"Ġtals":8626,"Ġfackliga":8627,"Ġvass":8628,"inter":8629,"ĠbehÃ¶vt":8630,"ĠsÃ¶derut":8631,"ĠChampions":8632,"ĠMod":8633,"Ġlinjer":8634,"okal":8635,"kal":8636,"Ġfattat":8637,"Ġbolagen":8638,"ruppen":8639,"Ġsvenske":8640,"ĠgenomfÃ¶rt":8641,"Ġsjunker":8642,"mera":8643,"Ġuppges":8644,"ĠklÃ¤nning":8645,"Ġyttersta":8646,"ĠtÃ¤nkbara":8647,"ĠskrÃ¤mmande":8648,"ĠUnga":8649,"ĠÃ¥rskurs":8650,"ĠVarberg":8651,"Ġtolkning":8652,"Ġvarannan":8653,"ĠtrÃ¶tta":8654,"ĠBell":8655,"ckar":8656,"sats":8657,"sliga":8658,"ĠpÃ¥gÃ¥tt":8659,"Ġdecennier":8660,"Ġtackar":8661,"Ġinsikt":8662,"ĠHov":8663,"yer":8664,"sbeslut":8665,"Ġinnefattar":8666,"ĠarmÃ©n":8667,"Ġytor":8668,"ĠTrans":8669,"direktÃ¶r":8670,"Ġetablerade":8671,"ĠOmgivningarna":8672,"oms":8673,"ĠgÃ¥rdagens":8674,"Ġbaka":8675,"sÃ¥tgÃ¤rder":8676,"ikerna":8677,"Ġkategorin":8678,"ĠHuset":8679,"fy":8680,"Ġsky":8681,"iserat":8682,"Ġvik":8683,"Ġkonkurrensen":8684,"Ġgranne":8685,"ĠUngefÃ¤r":8686,"ani":8687,"ĠfÃ¶rvalt":8688,"Ġagerande":8689,"ĠNov":8690,"Ġvilar":8691,"ĠnÃ¤mnde":8692,"hlin":8693,"Ġap":8694,"ĠstrÃ¥":8695,"Ġklokt":8696,"ĠLidingÃ¶":8697,"risen":8698,"familj":8699,"Ġ1966":8700,"ĠInd":8701,"ĠAF":8702,"Ġgran":8703,"Ġfamiljens":8704,"Ġkonstant":8705,"ĠnÃ¤mner":8706,"ĠInt":8707,"Ġkonsekvenserna":8708,"ĠKvinna":8709,"Ġblyg":8710,"Ġstunder":8711,"ĠsÃ¤msta":8712,"ĠGustavsson":8713,"ĠflÃ¶g":8714,"Ã¥nger":8715,"Ġavsedd":8716,"vig":8717,"hÃ¥lla":8718,"ĠExempel":8719,"skjut":8720,"Ġanklag":8721,"ĠvÃ¤ckte":8722,"Ġjakten":8723,"Ġteatern":8724,"ĠLÃ¶rdag":8725,"ĠrÃ¶tter":8726,"fÃ¶rteckning":8727,"ĠnyanlÃ¤nda":8728,"rÃ¤der":8729,"Ġagerar":8730,"Ġsomna":8731,"Ġhalvtimme":8732,"ĠtjÃ¤nstgÃ¶ring":8733,"ĠAL":8734,"ĠLinus":8735,"Ġvariera":8736,"ĠRef":8737,"ĠjÃ¤kla":8738,"kommande":8739,"ĠId":8740,"Ġcent":8741,"Ġrabatter":8742,"ĠJakob":8743,"utvecklingen":8744,"ĠBak":8745,"ĠbehÃ¶vas":8746,"Ġfriidrott":8747,"orden":8748,"Ġros":8749,"bandet":8750,"ĠKolla":8751,"Ġfarmor":8752,"ĠterrÃ¤ngen":8753,"ĠAntal":8754,"Ġgalet":8755,"ĠstrÃ¤ckan":8756,"Ġpian":8757,"ĠKommunal":8758,"rep":8759,"atter":8760,"Ġkanaler":8761,"ĠingÃ¥ng":8762,"ĠavslÃ¶jar":8763,"koll":8764,"ĠSi":8765,"bba":8766,"Ġdubb":8767,"ĠfÃ¶raren":8768,"oppa":8769,"Ġarrangerar":8770,"Ġtittat":8771,"ĠâĻ¥":8772,"ĠhÃ¤nvisar":8773,"ĠEnergi":8774,"jet":8775,"gjord":8776,"ĠVia":8777,"uru":8778,"jus":8779,"Ġfoton":8780,"ĠVil":8781,"ĠClub":8782,"OK":8783,"Ġgenerationer":8784,"ĠkÃ¥t":8785,"ĠAR":8786,"Ġbada":8787,"itter":8788,"ĠGreta":8789,"ĠhÃ¤mtar":8790,"hund":8791,"Ã³":8792,"Ġkatter":8793,"Ġbygglov":8794,"Ġpsykiska":8795,"Ġregional":8796,"derar":8797,"Ġmodernt":8798,"Ġgavs":8799,"Ġtillvaro":8800,"ĠSj":8801,"ĠTiden":8802,"ĠskÃ¤rm":8803,"Ġcup":8804,"Ġrekommenderas":8805,"ĠUkraina":8806,"ĠArm":8807,"Ġkliva":8808,"ĠBirger":8809,"kamrat":8810,"Ġjordbruksmark":8811,"Ġeg":8812,"pos":8813,"ake":8814,"ĠJer":8815,"ĠDU":8816,"fÃ¶rbrukning":8817,"Ġtidningarna":8818,"Ġprins":8819,"ĠFastighet":8820,"atch":8821,"Ã¤rna":8822,"ĠavlÃ¶":8823,"ĠMc":8824,"Ġengagerad":8825,"Ġmult":8826,"ĠSitter":8827,"ĠframtrÃ¤dande":8828,"ORT":8829,"Ġnoggrann":8830,"lagda":8831,"Ġintegritet":8832,"ĠUtbildning":8833,"service":8834,"frÃ¥gorna":8835,"Ġkommuns":8836,"Ġlikadant":8837,"Ġ1962":8838,"ĠslÃ¤nga":8839,"Ġtoalett":8840,"sfrÃ¥gor":8841,"ĠinnanfÃ¶r":8842,"Ãĥ":8843,"gav":8844,"Ġsattes":8845,"Ġtysta":8846,"stru":8847,"Ġcoach":8848,"ĠvÃ¤ggarna":8849,"Ġugn":8850,"ĠLÃ¶f":8851,"Ġjulklapp":8852,"ssÃ¤tt":8853,"Ġsomnade":8854,"Ġwe":8855,"Ġuttala":8856,"Ġdrama":8857,"Ġeu":8858,"Ã¥da":8859,"Ġtj":8860,"smaterial":8861,"boende":8862,"Ġpet":8863,"eng":8864,"ĠkÃ¤rnkraft":8865,"ĠlÃ¤nken":8866,"Ġutrikesminister":8867,"ĠTrelleborg":8868,"Ġbrons":8869,"ĠShe":8870,"hÃ¶gskolan":8871,"ĠPers":8872,"gade":8873,"ĠÃ¥rens":8874,"Ġpresenterades":8875,"Ġinspirerande":8876,"ĠMatch":8877,"ĠÂ¥":8878,"ĠSpr":8879,"Ã¤ger":8880,"Ġfilmerna":8881,"Ġkolon":8882,"Ġsvarat":8883,"Ġspridning":8884,"SM":8885,"ĠSR":8886,"Ġskjuter":8887,"visa":8888,"Ġfoder":8889,"Ġvarning":8890,"ĠutfÃ¶rs":8891,"ivitet":8892,"ĠavstÃ¥":8893,"Ġnorrut":8894,"kul":8895,"Ġyoutube":8896,"fva":8897,"Ġhistoriskt":8898,"ĠFel":8899,"ĠansÃ¶ka":8900,"gu":8901,"ĠÃ¤t":8902,"Ġregioner":8903,"Ġuttrycker":8904,"ĠtrÃ¶ja":8905,"Ġuppmanar":8906,"fatt":8907,"ĠdrÃ¶mmer":8908,"Ġfarlig":8909,"svik":8910,"ĠRiktigt":8911,"ĠRiksdagen":8912,"IA":8913,"ĠOrsaken":8914,"underlag":8915,"Ġhuman":8916,"beck":8917,"Ġhafva":8918,"kostnad":8919,"Ġkalkyl":8920,"UD":8921,"Ġvistelse":8922,"ĠfÃ¶rmiddagen":8923,"Ġvild":8924,"sÃ¤tta":8925,"ĠHemma":8926,"Ġrymmer":8927,"ĠSV":8928,"Ġcam":8929,"ĠTony":8930,"Ġsalu":8931,"upen":8932,"ĠÃ¶versikt":8933,"ĠSenaste":8934,"Ġgrundades":8935,"blÃ¥":8936,"ÃĸN":8937,"Ġinvandring":8938,"fisk":8939,"ĠÃ¤ndrar":8940,"Ġkulturen":8941,"Ġstatsbidrag":8942,"Ġblek":8943,"ota":8944,"Ġgrova":8945,"ĠbestÃ¤md":8946,"MA":8947,"Ġhov":8948,"Ġrysk":8949,"ĠhÃ¶rnet":8950,"ĠbÃ¶rsen":8951,"Ġfun":8952,"ĠkÃ¶ttet":8953,"ĠOhlsson":8954,"Ġaction":8955,"ĠUN":8956,"ĠJoel":8957,"komna":8958,"Ġlokalerna":8959,"ĠensamstÃ¥ende":8960,"Ġsymtom":8961,"ĠbedÃ¶mningen":8962,"ĠnÃ¶ja":8963,"ĠVÃĦ":8964,"Ġhanterar":8965,"Ġmedverkan":8966,"Ġbek":8967,"Ġlevereras":8968,"Ġstorlekar":8969,"Ġauktion":8970,"ATION":8971,"Ġfront":8972,"Ġelden":8973,"Ġkriminella":8974,"Ġtok":8975,"aser":8976,"Ġuppfylla":8977,"Ġofficiellt":8978,"Ġegenskap":8979,"Ġkvinnors":8980,"ĠFot":8981,"Ġallas":8982,"ome":8983,"ĠhÃ¤romdagen":8984,"Ġklasser":8985,"con":8986,"Ġarena":8987,"Ġprofessionell":8988,"Ġkup":8989,"skans":8990,"Ġkontinuerligt":8991,"ĠNU":8992,"ĠsÃ¤nda":8993,"Ġchatt":8994,"ĠHÃ¤lsing":8995,"Ġljust":8996,"Ġrevolution":8997,"Ġhotade":8998,"Ġhelvete":8999,"ĠBrott":9000,"fi":9001,"prÃ¥k":9002,"ĠtÃ¥lamod":9003,"umm":9004,"ĠTrollhÃ¤ttan":9005,"ign":9006,"Ġfantasi":9007,"ming":9008,"Ġmeddelas":9009,"ĠomvÃ¤rlden":9010,"ÃĦL":9011,"seende":9012,"ĠPortugal":9013,"ĠBod":9014,"Ġavsedda":9015,"Ġbussar":9016,"ĠPal":9017,"Ġtunna":9018,"ummer":9019,"Ġtroligtvis":9020,"skorna":9021,"ĠNamn":9022,"ĠSlutligen":9023,"Ġfritids":9024,"ĠMotor":9025,"ebo":9026,"ous":9027,"husen":9028,"Ã¤renden":9029,"ĠTio":9030,"slÃ¥n":9031,"Ġtemperaturen":9032,"Ġkastar":9033,"Ġ1963":9034,"Ġtryckt":9035,"Ġstatistiken":9036,"Ġskylt":9037,"ĠBÃ¤ck":9038,"Ġledigt":9039,"fÃ¶retagen":9040,"Ġredskap":9041,"Ã¼":9042,"ĠintrÃ¤ffat":9043,"Ġstorstad":9044,"ĠfÃ¶rvÃ¤ntar":9045,"Ã¥ker":9046,"handlare":9047,"stÃ¥ende":9048,"ĠKont":9049,"Ġfet":9050,"ĠIl":9051,"Ġelegant":9052,"ĠbostadsrÃ¤tt":9053,"Ġpool":9054,"Ġstav":9055,"ĠsÃ¥nger":9056,"otta":9057,"Ġsexuellt":9058,"Ġarkitekt":9059,"kommer":9060,"ĠFi":9061,"Ġkvarter":9062,"ĠPerfekt":9063,"ĠÃ¶kningen":9064,"ĠhÃ¥llbart":9065,"ĠPontus":9066,"Ġolyckor":9067,"regler":9068,"Ġsannolikhet":9069,"edal":9070,"xa":9071,"ELL":9072,"ĠAldrig":9073,"ĠMill":9074,"ĠMass":9075,"sky":9076,"ĠATT":9077,"ĠCharles":9078,"Ġframsteg":9079,"ĠAlingsÃ¥s":9080,"rapport":9081,"bolagen":9082,"Ġdes":9083,"ĠupphÃ¶r":9084,"Ġbeloppet":9085,"Ġkulturella":9086,"Ġtrist":9087,"slund":9088,"Ġutst":9089,"Ġkrona":9090,"ĠHÃ¶":9091,"Ġkansli":9092,"ĠAng":9093,"Ġfix":9094,"lÃ¤ggningar":9095,"cken":9096,"Ġpartiledare":9097,"skomm":9098,"Ġneutral":9099,"ĠBest":9100,"sidor":9101,"Ġkommunstyrelsen":9102,"ĠÃĸstersjÃ¶n":9103,"ĠfÃ¶rlÃ¤ngning":9104,"Ġoroliga":9105,"ĠSusanne":9106,"Ġsli":9107,"ĠUlrika":9108,"ĠWi":9109,"ĠfrÃ¥nvaro":9110,"Ġknull":9111,"Ã¶rt":9112,"oren":9113,"Ġvida":9114,"ĠfullstÃ¤ndig":9115,"Ġpacka":9116,"Ġbetonar":9117,"bu":9118,"OG":9119,"ĠarbetslÃ¶sheten":9120,"rÃ¤k":9121,"Ġorkester":9122,"Ġ1948":9123,"Ġfolkets":9124,"ĠPrivat":9125,"PS":9126,"ĠanmÃ¤lt":9127,"ĠjÃ¤mt":9128,"ĠLouis":9129,"Ġkoncernen":9130,"Ġkoldioxid":9131,"Ġreferens":9132,"ĠtillÃ¥tet":9133,"ĠKrist":9134,"ĠBeslutet":9135,"Ġadministrativa":9136,"bla":9137,"stÃ¤lle":9138,"ĠSmith":9139,"ĠBerglund":9140,"politiska":9141,"Ã¤nner":9142,"Ġfog":9143,"ĠÃ¶vrig":9144,"Ġmsk":9145,"anc":9146,"ĠWal":9147,"byggd":9148,"ĠfÃ¶rlusten":9149,"Ġgranska":9150,"cket":9151,"Ġgal":9152,"Ġbru":9153,"Ã¶jt":9154,"Ġrelevant":9155,"stugan":9156,"Ġstadsdel":9157,"elle":9158,"ĠSkolan":9159,"Ġklimatzonen":9160,"Ġenskilt":9161,"Ġsorter":9162,"ycket":9163,"ĠkvÃ¤llar":9164,"kommen":9165,"ĠvÃ¤rdefulla":9166,"ĠtillgÃ¤nglighet":9167,"ĠutlÃ¤ndsk":9168,"Ġskinn":9169,"ĠÃ¥tervÃ¤nder":9170,"ĠbedÃ¶m":9171,"dotter":9172,"ĠhÃ¶jer":9173,"Ġslutspel":9174,"gt":9175,"Ġvanligare":9176,"ĠhÃ¤":9177,"Ġavvikelser":9178,"ĠBryssel":9179,"ĠOttawa":9180,"Ġsporten":9181,"Ġfungerat":9182,"ital":9183,"ĠVÃ¤lkomna":9184,"Ã¤tter":9185,"imer":9186,"aturen":9187,"ĠÃĸn":9188,"Ġarbetsplatser":9189,"Ġlyder":9190,"ĠSkall":9191,"borgs":9192,"ĠBob":9193,"Ġprat":9194,"ĠJimmy":9195,"Ġskyddar":9196,"ĠkafÃ©":9197,"tjÃ¤n":9198,"ĠErnst":9199,"Ġtillvaron":9200,"ĠBosse":9201,"ĠhÃ¶gskola":9202,"ĠOd":9203,"ĠhÃ¤lsar":9204,"Ġlyckad":9205,"ĠlÃ¤der":9206,"ĠÃ¥terfÃ¶rsÃ¤ljare":9207,"Ġproducerar":9208,"Ġprognos":9209,"idens":9210,"Ġuppfattas":9211,"Ġkontors":9212,"ĠOlofsson":9213,"Ġomgivningen":9214,"ĠSystem":9215,"ĠtÃ¤lt":9216,"rÃ¤des":9217,"Ġfotbolls":9218,"Ġprocesser":9219,"Ġjudar":9220,"Ġmedicinsk":9221,"Ġdeltid":9222,"Ġtvinga":9223,"Ġkommenterar":9224,"ĠCarina":9225,"gan":9226,"Ġriktade":9227,"steknik":9228,"agg":9229,"Ġsann":9230,"YS":9231,"hÃ¥l":9232,"ero":9233,"Ġunderl":9234,"ĠfÃ¶rsamlingen":9235,"naderna":9236,"Ġqu":9237,"splatser":9238,"Ġproposition":9239,"hÃ¶jd":9240,"Ġond":9241,"Ġklassiker":9242,"Ġkil":9243,"bys":9244,"ĠanstÃ¤lla":9245,"Ġkoppar":9246,"Ã¤ss":9247,"ĠTvÃ¤rtom":9248,"Ġsemifinal":9249,"nÃ¤mnden":9250,"Ġborg":9251,"Ġtvungna":9252,"Ġonda":9253,"ĠGÃ¤r":9254,"ĠPS":9255,"ĠfÃ¶rÃ¤ldra":9256,"ĠÃ¶ppnat":9257,"ĠstÃ¶tta":9258,"Ġfeber":9259,"ĠintrÃ¤ffar":9260,"Ġrym":9261,"Ġreaktioner":9262,"vÃ¤rld":9263,"Ġokt":9264,"Ġskrevs":9265,"ĠKurt":9266,"ison":9267,"styrka":9268,"cell":9269,"mÃ¤staren":9270,"ĠBas":9271,"ĠÃ¶verst":9272,"Ġbifall":9273,"ĠslÃ¤ktingar":9274,"ĠtrÃ¤nade":9275,"ĠSÃ¶r":9276,"Ġprofessionella":9277,"ĠKarlshamn":9278,"ĠKram":9279,"ĠfÃ¤rska":9280,"ĠEgypten":9281,"ĠBesÃ¶k":9282,"savdelning":9283,"Ġdoktor":9284,"Ġkandidat":9285,"hu":9286,"Ġskivan":9287,"Ġfirade":9288,"Ġplockade":9289,"ĠRu":9290,"Ġsammant":9291,"ĠskÃ¥l":9292,"Ġoptim":9293,"ĠlÃ¶sas":9294,"ĠfÃ¶ras":9295,"ĠfÃ¶rdubb":9296,"Ġkrydd":9297,"Ġmotorn":9298,"vÃ¤x":9299,"ĠvÃ¤lkÃ¤nda":9300,"ĠOj":9301,"Ġkvaliteten":9302,"Ġjordbruket":9303,"Ã¤mnen":9304,"Ġordentlig":9305,"Ġmestadels":9306,"ĠmisstÃ¤nker":9307,"ĠpremiÃ¤rminister":9308,"Ġkapten":9309,"glas":9310,"Ġsommarens":9311,"Ġfy":9312,"ĠfÃ¶rtr":9313,"ĠanlÃ¤nde":9314,"Ġdroger":9315,"personal":9316,"ĠohÃ¤lsa":9317,"Ġry":9318,"ĠnÃ¤san":9319,"ĠKarolinska":9320,"Ġanledningar":9321,"Ġspring":9322,"ĠhÃ¶j":9323,"icks":9324,"gad":9325,"Ġkonsul":9326,"Ġgarn":9327,"kant":9328,"Ġtrettio":9329,"Ġutred":9330,"insats":9331,"Ġguldet":9332,"Ġgiven":9333,"ĠhÃ¤vdade":9334,"fter":9335,"lings":9336,"Ġservic":9337,"ĠBand":9338,"ĠtÃ¶m":9339,"Ġgilla":9340,"ĠsÃ¥ldes":9341,"Ġsta":9342,"Ġanonym":9343,"ĠfÃ¶ga":9344,"ĠWester":9345,"Ġtele":9346,"Ġsajten":9347,"ĠVietnam":9348,"Ġfotbollen":9349,"ĠKnut":9350,"lika":9351,"kontakt":9352,"Ġbry":9353,"cia":9354,"ĠBehÃ¶ver":9355,"Ġtypiskt":9356,"skÃ¥p":9357,"ĠanstÃ¤ll":9358,"komsten":9359,"ĠlÃ¥s":9360,"Ġbedrivs":9361,"ĠExtra":9362,"ike":9363,"Ġpara":9364,"ĠblÃ¥ser":9365,"ĠNykÃ¶ping":9366,"Ġkross":9367,"Ġgrunder":9368,"Ġmobiltelefon":9369,"andel":9370,"skommittÃ©n":9371,"ĠBÃ¶r":9372,"tagen":9373,"Ġref":9374,"ĠbelÃ¤get":9375,"visningar":9376,"Ġattityd":9377,"ĠTryck":9378,"Ġexperiment":9379,"ĠSkara":9380,"spart":9381,"atisk":9382,"Ġdemokrat":9383,"hjul":9384,"Ġbaseras":9385,"ĠfÃ¶rekom":9386,"stjÃ¤nster":9387,"Ġklock":9388,"Ġgatorna":9389,"ĠKlass":9390,"ockar":9391,"igheterna":9392,"ĠIkvÃ¤ll":9393,"ammant":9394,"ĠavgÃ¥ng":9395,"Ġgestalt":9396,"ĠSjÃ¤lva":9397,"ĠHum":9398,"Ġdej":9399,"Ġkarta":9400,"arden":9401,"ĠkÃ¤nn":9402,"uden":9403,"Ġfiber":9404,"ĠvÃ¤sentliga":9405,"Ã¥gen":9406,"ĠprÃ¤ster":9407,"ologin":9408,"ĠHÃ¥ller":9409,"ĠfÃ¶rebygga":9410,"ĠmÃ¶rker":9411,"systemet":9412,"ĠWien":9413,"juka":9414,"Ġpeka":9415,"idningen":9416,"ĠfÃ¶rmedla":9417,"ĠkÃ¤nsl":9418,"ĠKÃ¶n":9419,"anger":9420,"stuga":9421,"varna":9422,"Ġinledning":9423,"ĠkonstnÃ¤ren":9424,"ĠvÃ¥ningen":9425,"Ġrykte":9426,"ĠfjÃ¤rilsart":9427,"log":9428,"Ġporrfilmer":9429,"ĠMotala":9430,"vetenskap":9431,"ht":9432,"Ġrimlig":9433,"ĠuppstÃ¥tt":9434,"ĠPosted":9435,"Ġlju":9436,"ĠLundgren":9437,"ĠfÃ¶rv":9438,"rt":9439,"Ġjuridiska":9440,"ĠLÃ¤n":9441,"ĠBrynÃ¤s":9442,"Ġhehe":9443,"Ġmamman":9444,"lÃ¤ggas":9445,"fond":9446,"ĠPension":9447,"Ġkonserter":9448,"ĠMEN":9449,"vand":9450,"Ġenskilde":9451,"Ġuppgav":9452,"sministern":9453,"ĠbÃ¤nk":9454,"ose":9455,"Ġmotverka":9456,"ĠInge":9457,"Ġbarfota":9458,"anlÃ¤ggning":9459,"andena":9460,"Ġkommunicera":9461,"Ġnaz":9462,"Ġpsykiskt":9463,"ĠCafÃ©":9464,"Ã¤tten":9465,"Ġfunderat":9466,"OO":9467,"ĠMaja":9468,"ĠSjuk":9469,"ĠDela":9470,"ı":9471,"Ġgymnas":9472,"Ġansett":9473,"pad":9474,"pas":9475,"ĠnÃ¤rings":9476,"Ġarrangeras":9477,"jade":9478,"ĠuppmÃ¤rksamma":9479,"tagande":9480,"Ġdirektiv":9481,"Ġprop":9482,"Ġhemm":9483,"Ġbom":9484,"skada":9485,"Ġbostaden":9486,"Ġdeklar":9487,"Ġkoncentration":9488,"ĠlÃ¶nen":9489,"Ġpri":9490,"ĠBetrÃ¤ffande":9491,"ĠOff":9492,"ĠTour":9493,"tjÃ¤nst":9494,"ĠLac":9495,"Ġnoggrant":9496,"Ġ1958":9497,"Ġturneringen":9498,"Ġbegravnings":9499,"Ġcan":9500,"ĠarmÃ©":9501,"ĠSlott":9502,"Ġriks":9503,"oder":9504,"Ġsemestern":9505,"Ġpastor":9506,"Ġvarianter":9507,"ĠKnull":9508,"ĠgenomfÃ¶rande":9509,"enterna":9510,"ĠLiverpool":9511,"Ã¥ten":9512,"Ġmellanrum":9513,"ĠWar":9514,"Ġgirl":9515,"Ġnyans":9516,"ĠavlÃ¶ningsdag":9517,"Ġbristen":9518,"ĠÃĸland":9519,"Ġorten":9520,"ĠstÃ¤lldes":9521,"Ġexisterar":9522,"dy":9523,"Ġleker":9524,"ĠErbjudandet":9525,"ĠAlltid":9526,"ĠÃ¤rligt":9527,"Ġslit":9528,"ĠLina":9529,"ĠAf":9530,"Ġprojektledare":9531,"Ġstuga":9532,"rafik":9533,"Ġlagstiftningen":9534,"Ġwebben":9535,"Ġbastu":9536,"ĠMay":9537,"Ġavslag":9538,"vel":9539,"ĠKenneth":9540,"spolisen":9541,"Ġkontroller":9542,"Ġpall":9543,"Ġmeters":9544,"ĠnÃ¥d":9545,"teck":9546,"Ġ1947":9547,"ĠErotisk":9548,"ĠSha":9549,"Ġblogga":9550,"ekonom":9551,"ĠJÃ¤mfÃ¶r":9552,"Ġsiktar":9553,"Ġlogga":9554,"ĠVart":9555,"ĠLar":9556,"Ġaluminium":9557,"Ġflickorna":9558,"ĠmÃ¤sterskap":9559,"ĠAh":9560,"ĠGillar":9561,"klassen":9562,"ĠAc":9563,"Ġrem":9564,"ĠfÃ¶rvisso":9565,"Ġnjut":9566,"ĠFÃ¶rr":9567,"Ġfyllda":9568,"Ġbidrog":9569,"ĠvitlÃ¶k":9570,"ĠutvÃ¤rdering":9571,"otte":9572,"vind":9573,"Ġpassion":9574,"Ã¤nkt":9575,"delsen":9576,"stjÃ¤nsten":9577,"Ġarmar":9578,"ĠBarbro":9579,"ĠSvan":9580,"skyrkan":9581,"Ġsem":9582,"ĠHitler":9583,"Ġplatserna":9584,"ĠÃ¶kande":9585,"vakten":9586,"Ġdumt":9587,"ĠNY":9588,"Ġplockar":9589,"ĠLokal":9590,"Ġkillen":9591,"Ġsek":9592,"svÃ¤g":9593,"Ġskriker":9594,"ĠÃ¶verklag":9595,"ĠfÃ¶ret":9596,"insatser":9597,"Ġ1961":9598,"ĠtÃ¤nd":9599,"ĠVA":9600,"ĠAnita":9601,"Ġsmakar":9602,"ĠsÃ¤kerheten":9603,"Ġvardags":9604,"Ġresonemang":9605,"yng":9606,"Ġslapp":9607,"Ġmikro":9608,"ĠmÃ¶jliggÃ¶r":9609,"ĠMFF":9610,"ĠAgneta":9611,"Ġstater":9612,"Ġklaga":9613,"Ġkanten":9614,"rim":9615,"Ġaccepterar":9616,"ĠhÃ¤ftigt":9617,"ĠplÃ¥g":9618,"gÃ¥tt":9619,"Ġalternativa":9620,"Ġproffs":9621,"Ġradion":9622,"onger":9623,"Ġraden":9624,"ĠpjÃ¤s":9625,"Ġversionen":9626,"Ġberodde":9627,"Ġfrivilligt":9628,"Ã¸":9629,"ĠberÃ¤k":9630,"kla":9631,"Ġaxel":9632,"Ġsmaka":9633,"ĠHit":9634,"Ã¶f":9635,"ĠrÃ¤ntan":9636,"DA":9637,"ĠReuter":9638,"ĠHAR":9639,"Ġdryg":9640,"ĠRÃ¶d":9641,"Ġtolka":9642,"ĠkvÃ¤llarna":9643,"Ġlandsbygd":9644,"ĠskÃ¶rd":9645,"Ġstudien":9646,"Ã¤ge":9647,"undervisning":9648,"Ġflytande":9649,"Ġgren":9650,"Ġsla":9651,"Ġtrycket":9652,"ĠInternationella":9653,"sby":9654,"ĠJAG":9655,"Ġdefinition":9656,"Ġantas":9657,"ĠgrÃ¤v":9658,"HL":9659,"Ġbetrakta":9660,"ĠDar":9661,"Ġansluta":9662,"organisationer":9663,"Ġtendens":9664,"ĠrÃ¥varor":9665,"fÃ¶rsvar":9666,"Ġflaska":9667,"Ġhustrun":9668,"Ġdomaren":9669,"ki":9670,"anson":9671,"rus":9672,"fÃ¶rslaget":9673,"tagna":9674,"Ġserver":9675,"elius":9676,"ĠBan":9677,"ilen":9678,"edan":9679,"Ġkamrater":9680,"ĠkÃ¶pare":9681,"Ġ1939":9682,"Ġantag":9683,"ĠKh":9684,"ĠklÃ¤derna":9685,"ornas":9686,"usten":9687,"Ġrus":9688,"Ã¤nkning":9689,"ission":9690,"Ġfeb":9691,"atorer":9692,"Ġuppf":9693,"ĠStra":9694,"Ġslutsatser":9695,"ĠUS":9696,"ĠtillgÃ¤ngligt":9697,"garanti":9698,"Ġsakna":9699,"Ġfullkomligt":9700,"iler":9701,"Ġmorfar":9702,"Ġgymmet":9703,"Ġsmyg":9704,"ĠSvD":9705,"Ġflott":9706,"ĠseriÃ¶st":9707,"Ġvillkoren":9708,"frid":9709,"bÃ¶r":9710,"Ġavd":9711,"Ġsinne":9712,"Ġmisst":9713,"Ġten":9714,"Ġbre":9715,"shand":9716,"Ġrasism":9717,"oni":9718,"Ġingredienser":9719,"Ġskym":9720,"ĠnÃ¶je":9721,"Ġprotein":9722,"ĠgodkÃ¤nnande":9723,"ĠfÃ¶rdelning":9724,"Ġskar":9725,"ĠhÃ¥llits":9726,"Ġtorra":9727,"Ġdrivit":9728,"burg":9729,"ĠBrom":9730,"Ġbiten":9731,"ĠSid":9732,"ĠTrafik":9733,"ĠSpar":9734,"Ġweb":9735,"Ġupplaga":9736,"Ġgata":9737,"ĠlÃ¥tsas":9738,"analys":9739,"ĠJe":9740,"Ġseries":9741,"Ġbevisa":9742,"uell":9743,"sbidrag":9744,"yren":9745,"ĠBred":9746,"ĠkÃ¤nsliga":9747,"hÃ¥llas":9748,"Ġorka":9749,"Ġhas":9750,"dt":9751,"Ġru":9752,"Ġtuffare":9753,"ĠWilhelm":9754,"Ġbranscher":9755,"ĠMexiko":9756,"ĠSvea":9757,"avdelningen":9758,"amer":9759,"Ġ105":9760,"Ġlill":9761,"Ġinleder":9762,"Ġbrud":9763,"Ġbla":9764,"Ġkategori":9765,"Ġuteslutande":9766,"Ġkreativa":9767,"sprodukter":9768,"snÃ¤mnd":9769,"ĠframfÃ¶rde":9770,"ĠDans":9771,"Ġskur":9772,"rock":9773,"inger":9774,"parti":9775,"ĠHjalmar":9776,"Ġopera":9777,"Ġnormer":9778,"ĠCentrum":9779,"ĠÃ¤ndrat":9780,"Ġkartan":9781,"handlingarna":9782,"ĠfÃ¶rbÃ¤ttras":9783,"jk":9784,"Ġsnick":9785,"Ġbetalat":9786,"ĠFyll":9787,"ĠGlas":9788,"PA":9789,"Ġplattform":9790,"ĠTeam":9791,"ĠLen":9792,"ines":9793,"ĠskÃ¥p":9794,"Ġgymnastik":9795,"Ġpropositionen":9796,"ĠEt":9797,"betyg":9798,"Ġresur":9799,"Ġlyfte":9800,"Ġideal":9801,"ĠÃĦlskar":9802,"byte":9803,"feldt":9804,"ĠfÃ¶rmÃ¶genhet":9805,"Ġvitamin":9806,"ĠFinn":9807,"Ġnationellt":9808,"ĠFÃ¶rsÃ¶k":9809,"ĠupprÃ¤tthÃ¥lla":9810,"sj":9811,"ĠspÃ¥ren":9812,"Ġdigitalt":9813,"ĠtrÃ¤n":9814,"ĠfortsÃ¤ttning":9815,"atte":9816,"kÃ¶":9817,"Ġsuger":9818,"yds":9819,"ĠNordic":9820,"Ġfinger":9821,"Ġorsaka":9822,"Ġtyngd":9823,"Ġredaktion":9824,"71":9825,"ical":9826,"ĠseriÃ¶sa":9827,"Ġcomeback":9828,"ĠfÃ¶rklarat":9829,"ito":9830,"ĠEv":9831,"ĠTop":9832,"Ġbonde":9833,"ĠbehÃ¶righet":9834,"45":9835,"ĠutstÃ¤llningar":9836,"sma":9837,"ĠBern":9838,"vning":9839,"Ġmedborgarna":9840,"Ġmannens":9841,"ĠPosten":9842,"ĠDÃ¶d":9843,"ĠBef":9844,"Ġrulla":9845,"itu":9846,"ĠfÃ¶rvaring":9847,"ĠTÃ¤nkte":9848,"Ġuppenbar":9849,"Ġarbetarna":9850,"Ġutnyttjar":9851,"Ġaspekter":9852,"Ġhappy":9853,"ĠRio":9854,"ĠpojkvÃ¤n":9855,"Ġknep":9856,"Ġkortet":9857,"Ġocksa":9858,"vÃ¤xt":9859,"Ġdetaljplan":9860,"Ġsekretess":9861,"ĠPhilip":9862,"com":9863,"sfÃ¶rbund":9864,"ĠMinst":9865,"Ġbredare":9866,"Ġrutan":9867,"ents":9868,"Ġpojkarna":9869,"rass":9870,"Ġsuccessivt":9871,"Ã¥nd":9872,"Ġfisken":9873,"Ã¤mnas":9874,"miljÃ¶":9875,"ĠmÃ¤rktes":9876,"ytan":9877,"Ġslottet":9878,"ĠÃ¶verlÃ¥t":9879,"ĠApple":9880,"slÃ¤get":9881,"Ġtystnad":9882,"Ġlille":9883,"ĠMatchen":9884,"Ġpump":9885,"Ġlagret":9886,"Ġpatienterna":9887,"ĠhalvÃ¥ret":9888,"Ġ1956":9889,"Ġmigration":9890,"ĠVas":9891,"ĠlikasÃ¥":9892,"Ġsvagt":9893,"urg":9894,"Ġbot":9895,"Ġlivstid":9896,"ĠbortgÃ¥ng":9897,"ĠmÃ¥ltid":9898,"ĠGrattis":9899,"Ġfrivilliga":9900,"lex":9901,"Ġglobal":9902,"Ġpasserat":9903,"ljus":9904,"ĠTjÃ¤nsten":9905,"Ġnerv":9906,"ĠAle":9907,"iti":9908,"Ġvackraste":9909,"Ġlagets":9910,"ĠhÃ¤rifrÃ¥n":9911,"ĠBay":9912,"lack":9913,"papper":9914,"ĠEss":9915,"dig":9916,"Ġstarkaste":9917,"last":9918,"ĠskrÃ¤p":9919,"Ġhistorisk":9920,"ĠbyrÃ¥":9921,"Ġjeans":9922,"uella":9923,"ĠSollentuna":9924,"ĠstrÃ¤ng":9925,"examen":9926,"Ġarabiska":9927,"Ġoppositionen":9928,"Ġmill":9929,"filmen":9930,"ĠCirka":9931,"FS":9932,"ĠtÃ¤nkande":9933,"Ġanda":9934,"ĠWindows":9935,"ĠnÃ¤mn":9936,"ĠApp":9937,"ĠMet":9938,"Ġhemlig":9939,"ĠNina":9940,"lav":9941,"Ġstugan":9942,"Ġang":9943,"Ġprotester":9944,"ĠbÃ¶nder":9945,"stÃ¤m":9946,"Ġskrivelse":9947,"Ġengagera":9948,"ĠfÃ¶restÃ¤lla":9949,"Ġsumman":9950,"ĠTog":9951,"Ã¥ra":9952,"ĠÃĸstergÃ¶tland":9953,"Ġhundarna":9954,"kam":9955,"hÃ¥ller":9956,"Ġbuller":9957,"Ġmilf":9958,"Ġlugnare":9959,"ĠÃ¤gnat":9960,"ĠMilj":9961,"Ġutbilda":9962,"ĠMÃ¥ng":9963,"ĠfÃ¶rsk":9964,"Ġavskaff":9965,"Ġudda":9966,"agd":9967,"Ġljudet":9968,"Ġverkan":9969,"ĠJÃ¤mtland":9970,"Ġlagts":9971,"ĠÃ¶vning":9972,"edda":9973,"ĠsÃ¤ljas":9974,"Ġkaff":9975,"Ġabsoluta":9976,"veckan":9977,"ĠTelia":9978,"Ġnedre":9979,"ĠfÃ¶rn":9980,"Ġveder":9981,"Ġtjocka":9982,"Ã¤nkningar":9983,"slÃ¶st":9984,"smÃ¶jligheter":9985,"Ġtillverkas":9986,"stjÃ¤rnan":9987,"sreg":9988,"ĠAlbin":9989,"Ġtidnings":9990,"ĠfÃ¶da":9991,"ĠSandra":9992,"ĠÃ¶pp":9993,"ĠlÃ¶v":9994,"Ġ031":9995,"Ġforn":9996,"Ġlovande":9997,"tog":9998,"ĠNÃ¤ssjÃ¶":9999,"pengar":10000,"ĠBab":10001,"ĠhÃ¤rmed":10002,"flyttning":10003,"ART":10004,"ĠKristian":10005,"ĠVerksamheten":10006,"ĠNordiska":10007,"ĠosÃ¤kerhet":10008,"delser":10009,"Ġsmycken":10010,"Ġinstallation":10011,"EK":10012,"kontroll":10013,"Ġspik":10014,"ĠJohnny":10015,"Ã¤rd":10016,"sskatt":10017,"sfÃ¶rsÃ¤kring":10018,"Ġordnar":10019,"Ġspelen":10020,"Ġstorleken":10021,"sarbetet":10022,"ĠTyp":10023,"ĠovanstÃ¥ende":10024,"skande":10025,"Ġrit":10026,"ĠsÃ¶ner":10027,"nt":10028,"fon":10029,"hÃ¥llare":10030,"cen":10031,"Ġherre":10032,"ĠvÃ¤lfÃ¤rden":10033,"ĠbrÃ¶derna":10034,"ĠSilver":10035,"Ġku":10036,"ĠEj":10037,"Ġframtidens":10038,"Ġsektor":10039,"ĠfÃ¶tterna":10040,"ĠFalkenberg":10041,"uset":10042,"amn":10043,"Ġjaga":10044,"ĠmÃ¤rkliga":10045,"ĠutgÃ¥ngen":10046,"Ġstigande":10047,"derat":10048,"ĠStreet":10049,"ikat":10050,"ĠHigh":10051,"ĠÃ¤nd":10052,"Ġbollar":10053,"ĠKÃ¤r":10054,"Ġsedermera":10055,"agar":10056,"ĠCat":10057,"ĠSem":10058,"Ġliggande":10059,"fyllda":10060,"Ġbyggd":10061,"Ġspendera":10062,"ient":10063,"ĠRid":10064,"Ġindividuellt":10065,"ĠutsÃ¤tts":10066,"ĠfÃ¶rvaltningen":10067,"Ġvirus":10068,"ĠuppgÃ¶relse":10069,"ĠfÃ¶relÃ¤sningar":10070,"Ġkoncern":10071,"Ġerford":10072,"Ã¤ndes":10073,"ĠrÃ¥dgivning":10074,"Ġladd":10075,"Ġutforska":10076,"ĠRonneby":10077,"Ġdildo":10078,"vard":10079,"ĠdÃ¶dsfall":10080,"ĠfÃ¶rbÃ¤ttringar":10081,"Ġbetydelsen":10082,"Ġbrutit":10083,"Ġkvinno":10084,"Ġtolk":10085,"Ġnagon":10086,"skil":10087,"Ġvittnen":10088,"Ġstuderande":10089,"dde":10090,"ĠlÃ¤ngtan":10091,"ĠTon":10092,"gÃ¶relsen":10093,"skapen":10094,"ness":10095,"ĠstrÃ¤var":10096,"ĠÃħmÃ¥l":10097,"ĠWin":10098,"skriven":10099,"Ġtalen":10100,"Ġbyxor":10101,"Ġstrejk":10102,"Ġupplevde":10103,"Ġintyg":10104,"Ġerotik":10105,"lÃ¤kare":10106,"ĠJosef":10107,"ĠGick":10108,"innor":10109,"Ġpsalm":10110,"ffa":10111,"ĠÃ¶vert":10112,"ĠÃ¥klagare":10113,"ĠengÃ¥ng":10114,"Ġtillverka":10115,"rÃ¤dd":10116,"dagens":10117,"ĠVÃ¤sterbotten":10118,"skat":10119,"ĠvarpÃ¥":10120,"Ġuttryckt":10121,"Ġinrikes":10122,"Ġbag":10123,"raft":10124,"ĠflickvÃ¤n":10125,"Ġtitlar":10126,"ĠrÃ¶sten":10127,"svenska":10128,"spark":10129,"ĠrÃ¤ddade":10130,"rÃ¥den":10131,"Ġpuss":10132,"Ġkolleger":10133,"ĠRun":10134,"Ġavkastning":10135,"ĠvÃ¥ran":10136,"ĠfÃ¶rk":10137,"ĠArlanda":10138,"Ġbrottet":10139,"Ġslogs":10140,"Ġkons":10141,"liknande":10142,"Ġkyla":10143,"ĠFinlands":10144,"Ġkonflikten":10145,"ĠflÃ¤sk":10146,"Ġkna":10147,"Ġlev":10148,"slÃ¤ge":10149,"Ġlar":10150,"ĠfÃ¶":10151,"ĠMos":10152,"ĠkvalitÃ©":10153,"ĠProgrammet":10154,"ĠnedÃ¥t":10155,"ĠFe":10156,"kets":10157,"grens":10158,"Ġkrediter":10159,"Ġspis":10160,"ni":10161,"ĠtvÃ¥vingeart":10162,"Ġhals":10163,"Ġline":10164,"verige":10165,"Ġstimulerande":10166,"iserar":10167,"ĠTele":10168,"St":10169,"Ġexklusiva":10170,"skrift":10171,"ĠgenomfÃ¶rts":10172,"idning":10173,"Ġscener":10174,"ĠPerson":10175,"ĠbestÃ¤llt":10176,"ĠProjektet":10177,"ĠXxx":10178,"ary":10179,"ĠlÃ¥ngtid":10180,"Ġreger":10181,"ual":10182,"ĠprÃ¶vas":10183,"ĠTekniska":10184,"Ġtoppar":10185,"Ġavvakt":10186,"produktionen":10187,"Ġskrivs":10188,"dÃ¶m":10189,"Ġplagg":10190,"kÃ¥ren":10191,"Ġbygget":10192,"ĠSjÃ¶berg":10193,"Ġdylikt":10194,"Ã¥gor":10195,"ĠSÃ¶":10196,"sy":10197,"ĠCla":10198,"Ġfiskar":10199,"ĠPersonalen":10200,"ĠprÃ¶v":10201,"bru":10202,"ĠdÃ¶dades":10203,"ĠSeger":10204,"ĠrÃ¤ttegÃ¥ngen":10205,"Ġmotionen":10206,"ĠSÃħ":10207,"ĠtillfÃ¤llig":10208,"ĠDEN":10209,"pade":10210,"ĠKoka":10211,"Ġ1946":10212,"nÃ¤t":10213,"ĠMona":10214,"Ġhalvtid":10215,"IM":10216,"nÃ¤r":10217,"Ġinstitutet":10218,"26":10219,"ĠberÃ¤tt":10220,"ĠAllan":10221,"Ġ1952":10222,"ĠOh":10223,"ĠAndre":10224,"ĠlÃ¤gst":10225,"Ġplacerad":10226,"ĠSocialstyrelsen":10227,"ĠIg":10228,"porten":10229,"ĠfÃ¶rnuft":10230,"Ġlatin":10231,"cc":10232,"ĠEst":10233,"ĠHr":10234,"ĠVÃ¤x":10235,"ĠrÃ¤ttvist":10236,"Ġtillgodose":10237,"oler":10238,"Ġkokt":10239,"ĠNyligen":10240,"Ã¤llskap":10241,"Ġbankerna":10242,"bod":10243,"Ġ~":10244,"vent":10245,"Ġyngsta":10246,"ĠErfarenhet":10247,"ĠkÃ¤mpade":10248,"Ġredovisar":10249,"Ġutland":10250,"SP":10251,"debatt":10252,"Ġrecensioner":10253,"fot":10254,"ordfÃ¶rande":10255,"jÃ¤nster":10256,"Ġsajt":10257,"ĠfÃ¶rklaras":10258,"ĠFur":10259,"ĠblÃ¥tt":10260,"ĠMorgan":10261,"Ġvarg":10262,"ĠElsa":10263,"Ġreglering":10264,"Ġvatt":10265,"edd":10266,"Ġinledande":10267,"gÃ¶relse":10268,"Ġtillverkare":10269,"Ġdotterbolag":10270,"ĠBilden":10271,"ruk":10272,"brÃ¶d":10273,"Ġskydds":10274,"krets":10275,"ĠlÃ¶fte":10276,"Ġgaller":10277,"ĠPri":10278,"fÃ¶ring":10279,"ĠkÃ¤rnvapen":10280,"ĠBru":10281,"Ġavdelningar":10282,"ĠnedanfÃ¶r":10283,"ĠsÃ¤ndes":10284,"Ġsenior":10285,"Ġknappen":10286,"fred":10287,"ĠÃ¥terstÃ¤ll":10288,"stÃ¤llen":10289,"ect":10290,"ms":10291,"Ġdiskriminering":10292,"butik":10293,"Ġremiss":10294,"rans":10295,"Ġkliver":10296,"Ġinsyn":10297,"spolitiska":10298,"mÃ¤t":10299,"ĠLaget":10300,"ĠfÃ¶rhoppningar":10301,"ĠRisken":10302,"EA":10303,"ĠkÃ¶rs":10304,"ĠUll":10305,"Ã¤nger":10306,"kunskap":10307,"ĠcafÃ©":10308,"onn":10309,"SL":10310,"ĠSur":10311,"Ġ1959":10312,"ĠasylsÃ¶kande":10313,"sling":10314,"ĠOlika":10315,"ĠPernilla":10316,"Ġhvad":10317,"Ġvinnaren":10318,"anskt":10319,"Ġbandy":10320,"ĠRickard":10321,"ĠutfÃ¶rt":10322,"Ġliber":10323,"Ã¶na":10324,"ĠSÃ¶ren":10325,"ĠupptÃ¤cktes":10326,"yckan":10327,"CO":10328,"ĠstÃ¤ndig":10329,"ĠElfsborg":10330,"ĠMÃ¤n":10331,"Ġskede":10332,"ilja":10333,"Ġblodet":10334,"Ġorsakar":10335,"Ġ1944":10336,"Ġstuderade":10337,"Ġrevansch":10338,"Ġvagnen":10339,"ĠGri":10340,"Ġknullar":10341,"Ġamerikan":10342,"Ġutredningens":10343,"ĠEuropeiska":10344,"Ġpla":10345,"ĠSCB":10346,"Ġpolska":10347,"poj":10348,"kÃ¶rning":10349,"Ġanvis":10350,"ĠKen":10351,"ĠKlara":10352,"ĠmotstÃ¥ndet":10353,"Ġvittnar":10354,"ĠJim":10355,"Ġkop":10356,"jÃ¶r":10357,"dring":10358,"OCK":10359,"Ġlyckliga":10360,"Ġutmana":10361,"Ġmuskler":10362,"ĠLjungby":10363,"Ġbesvikelse":10364,"Ġresulterade":10365,"Ġuttalat":10366,"ĠÃ¤tt":10367,"ĠupplÃ¤gg":10368,"slÃ¶shet":10369,"ĠIV":10370,"Ġlur":10371,"ANS":10372,"Ã¤mm":10373,"Ġjour":10374,"ĠutfÃ¶ras":10375,"Ġali":10376,"Ġrelationen":10377,"lov":10378,"Ġ450":10379,"Ġtyngre":10380,"Ġfelaktigt":10381,"ĠbehÃ¶vdes":10382,"laren":10383,"Ġkreditkort":10384,"ycka":10385,"Ġ1957":10386,"vattnet":10387,"ĠNog":10388,"ĠKra":10389,"ĠSpring":10390,"Ġkra":10391,"ĠfÃ¶rstÃ¶ra":10392,"Ġbortom":10393,"ĠKarlskoga":10394,"ĠsÃ¶ndagens":10395,"fÃ¶rare":10396,"Ġhastigt":10397,"Ġfalska":10398,"ĠSkÃ¶nt":10399,"lige":10400,"ĠanvÃ¤ndningen":10401,"Ġutbudet":10402,"Ġinflation":10403,"Ġmuskel":10404,"hÃ¤st":10405,"pning":10406,"Ġvalda":10407,"ĠHA":10408,"ĠpÃ¥gick":10409,"rich":10410,"Ġhoppats":10411,"Ġstore":10412,"Ġbegravning":10413,"Ġtime":10414,"Ġbilligaste":10415,"ĠmÃ¥lsÃ¤ttning":10416,"ĠÃ¥n":10417,"Ġvardagsrummet":10418,"ĠersÃ¤ttare":10419,"ĠÃ¶vervakning":10420,"Ġhanteras":10421,"emi":10422,"ĠNat":10423,"aks":10424,"ĠAffÃ¤r":10425,"vas":10426,"ĠÃ¶nskat":10427,"Ã¶nen":10428,"Ġtrenden":10429,"ĠFolke":10430,"Ġutrednings":10431,"ĠIt":10432,"Ġetablera":10433,"Ġgalen":10434,"Ġglobalt":10435,"dragen":10436,"kyrkan":10437,"mÃ¶":10438,"Ġdegen":10439,"ĠBÃ¤ttre":10440,"ĠGrupp":10441,"Ġservering":10442,"Ġhands":10443,"ektion":10444,"ĠsÃ¤songens":10445,"Ġutvecklade":10446,"Ġpapp":10447,"Ġrepar":10448,"ift":10449,"ĠChe":10450,"steater":10451,"innet":10452,"Ġsort":10453,"ĠbetÃ¤nkande":10454,"Ġskaffat":10455,"Ġmarknader":10456,"Ġdiabetes":10457,"ĠrÃ¶sterna":10458,"ĠomdÃ¶me":10459,"skontrakt":10460,"ĠVasa":10461,"ĠSandberg":10462,"fartyg":10463,"ĠChile":10464,"Ġgods":10465,"ĠARBET":10466,"Ġutbildade":10467,"ĠutgÃ¶rs":10468,"Ġsignaler":10469,"Ġsamvete":10470,"ĠnÃ¤mns":10471,"35":10472,"Ġprotokoll":10473,"itta":10474,"ĠarbetssÃ¤tt":10475,"ĠMigrationsverket":10476,"Ġover":10477,"havaren":10478,"Ġsakerna":10479,"Ġblind":10480,"ĠslÃ¥s":10481,"ĠResultat":10482,"Ġinverkan":10483,"box":10484,"Ġekologiska":10485,"Ġill":10486,"Ġfestivalen":10487,"ĠBoden":10488,"ĠbrÃ¶der":10489,"alternativ":10490,"Ġelevernas":10491,"fÃ¶rbud":10492,"ĠfÃ¶rvÃ¤rva":10493,"ĠerkÃ¤nt":10494,"ĠrÃ¤ddningstjÃ¤nsten":10495,"Ġproff":10496,"ĠBoka":10497,"din":10498,"ener":10499,"ynd":10500,"hot":10501,"ĠhÃ¥":10502,"Ġrecension":10503,"ĠhÃ¶gra":10504,"Ġmeddelanden":10505,"Ġkapell":10506,"Ġbekostnad":10507,"Ġsnacka":10508,"ĠSin":10509,"ĠtillÃ¥ta":10510,"Ġsmaken":10511,"ĠvÃ¤ska":10512,"ĠvarumÃ¤rke":10513,"fÃ¶lj":10514,"utredningen":10515,"Ġrost":10516,"Ġaug":10517,"ĠRÃ¥":10518,"steatern":10519,"anis":10520,"iering":10521,"Ġrepresenterade":10522,"Ġbiskop":10523,"Ġtan":10524,"Ġjobben":10525,"ĠrÃ¤knade":10526,"ĠÃ¶vervÃ¤gande":10527,"Ġbackar":10528,"Ġkommunistiska":10529,"ĠutvÃ¤ndigt":10530,"tagare":10531,"Ġ1955":10532,"ĠGroup":10533,"dena":10534,"risten":10535,"Ġodds":10536,"shemmet":10537,"ĠgrÃ¥ta":10538,"ĠMars":10539,"ĠberÃ¤kningar":10540,"ĠKro":10541,"fte":10542,"Ġanordnas":10543,"Ġminskad":10544,"Ġuttalade":10545,"ĠatmosfÃ¤r":10546,"Ġabort":10547,"Ġeffektivitet":10548,"ĠAC":10549,"ĠSandviken":10550,"asing":10551,"Ġgre":10552,"ĠspÃ¤r":10553,"zer":10554,"ĠVÃ¤n":10555,"Ġbildade":10556,"ensis":10557,"Ġbebis":10558,"ĠtillvÃ¤xten":10559,"savgifter":10560,"nads":10561,"Ġfarfar":10562,"ĠsÃ¥s":10563,"ĠLilje":10564,"Ġstatligt":10565,"ĠÃ¤mbet":10566,"Ġstuderar":10567,"asin":10568,"ĠâĢĺ":10569,"ĠupptrÃ¤der":10570,"ĠfÃ¶rtid":10571,"Ġtrapp":10572,"Ġlack":10573,"Ġbredband":10574,"klÃ¤dda":10575,"ĠsÃ¤nds":10576,"Ġfabriken":10577,"debut":10578,"ĠhÃ¤l":10579,"ĠOskarshamn":10580,"ĠCaroline":10581,"ĠvÃ¥ll":10582,"ĠlÃ¤ngsta":10583,"ĠDags":10584,"ĠintrÃ¤de":10585,"Ġsena":10586,"TS":10587,"ĠBeslut":10588,"ĠVÃ¤stervik":10589,"Ġbefar":10590,"ĠNyg":10591,"Ã¤nning":10592,"ĠHu":10593,"Ġskjuts":10594,"Ġkommersiella":10595,"Ġtrivas":10596,"ĠMi":10597,"Ġfaktiska":10598,"sledningen":10599,"Ġmenyn":10600,"ĠKÃ¶pa":10601,"ĠstÃ¤ngde":10602,"ĠTrÃ¤dgÃ¥rd":10603,"Ġsatsningen":10604,"Ġminsann":10605,"brand":10606,"ĠhjÃ¤rna":10607,"Ġkuvert":10608,"yget":10609,"ygga":10610,"Ġgissa":10611,"Ġindividen":10612,"Ġregnet":10613,"ĠtrÃ¤ng":10614,"ĠmÃ¤rken":10615,"Ġinsamling":10616,"Ġregistrerade":10617,"ĠNÃ¤s":10618,"rak":10619,"bildningen":10620,"Ġsakkunniga":10621,"Ġinneburit":10622,"ĠDesign":10623,"lÃ¤rare":10624,"Ġfartyget":10625,"Ġent":10626,"Ġnorsk":10627,"Ġstenar":10628,"ĠSida":10629,"gh":10630,"ji":10631,"ĠPop":10632,"ĠBenny":10633,"Ġtillskott":10634,"ĠvÃ¤sentlig":10635,"ĠbesÃ¶ket":10636,"Ġfesten":10637,"ĠLinn":10638,"Ġnagot":10639,"mis":10640,"Ġenheten":10641,"Ġsock":10642,"ĠOkej":10643,"Ġparlamentar":10644,"ĠNorrtÃ¤lje":10645,"enser":10646,"Ġstreck":10647,"ĠBrun":10648,"Ġstatsministern":10649,"ĠpÃ¥verkat":10650,"IR":10651,"ĠBus":10652,"fotboll":10653,"ĠJoseph":10654,"ĠÃĸppna":10655,"Ġrenovering":10656,"Ġfirma":10657,"Ġih":10658,"ĠunderhÃ¥llande":10659,"Ġsyss":10660,"ĠundersÃ¶kt":10661,"Ġnumret":10662,"Ġsug":10663,"ĠhÃ¶gskolan":10664,"ĠGR":10665,"Ã¤lt":10666,"Ġjordens":10667,"ĠgenomgÃ¥ng":10668,"matchen":10669,"Ġdistriktet":10670,"Ġutsatts":10671,"igan":10672,"ĠlÃ¤mnats":10673,"Ġsovit":10674,"Ġpublicerade":10675,"edag":10676,"Ġdelat":10677,"ĠutsÃ¥gs":10678,"ĠFÃ¶rslag":10679,"ĠkrÃ¤vande":10680,"ĠSarah":10681,"ĠNederlÃ¤nderna":10682,"vÃ¤rt":10683,"ĠutÃ¶va":10684,"Ġkyrkoherde":10685,"Ġmott":10686,"ĠrÃ¤ntor":10687,"Ġkre":10688,"Ġkonjunktur":10689,"ĠnordvÃ¤stra":10690,"Ġpower":10691,"ĠanhÃ¶rig":10692,"Ġdeleg":10693,"ĠstrÃ¤van":10694,"Ġblickar":10695,"Ġpassera":10696,"ĠÃ¤gnade":10697,"ĠunderlÃ¤ttar":10698,"ĠHÃ¤gg":10699,"ĠtjÃ¤nsteman":10700,"ivit":10701,"ĠbegrÃ¤nsas":10702,"Ġutgjorde":10703,"Ġnagra":10704,"Ġ179":10705,"ĠKraft":10706,"bete":10707,"ĠAp":10708,"Ġmjukt":10709,"ĠMÃ¥ndag":10710,"rÃ©":10711,"Ġbaksidan":10712,"objekt":10713,"Ġ1200":10714,"ese":10715,"stri":10716,"Ġforskar":10717,"Ġpsyk":10718,"enska":10719,"Ġprote":10720,"ĠâĨĴ":10721,"ĠklagomÃ¥l":10722,"Ġinnovation":10723,"ĠhjÃ¤rtan":10724,"Ġarmarna":10725,"ĠupprÃ¶rd":10726,"ĠHÃ¥":10727,"Ġturen":10728,"ĠMedia":10729,"ĠlÃ¥net":10730,"zo":10731,"ĠGolf":10732,"Ã¶ken":10733,"ria":10734,"ĠNorth":10735,"Ġkopplade":10736,"ĠBuss":10737,"ĠresenÃ¤rer":10738,"Ġhets":10739,"Ġfinansiera":10740,"ĠDanielsson":10741,"Ġfilosof":10742,"asson":10743,"Ġstoppade":10744,"pri":10745,"isch":10746,"ĠGÃ¥rd":10747,"Ġkonsekvens":10748,"ĠlikvÃ¤l":10749,"Ġrim":10750,"taget":10751,"ĠtÃ¥rar":10752,"Ġutbildad":10753,"vakter":10754,"Ġrekommendationer":10755,"ĠRagnar":10756,"Ġgarantera":10757,"Ġkabel":10758,"Ġcykeln":10759,"Ã¤staren":10760,"kamp":10761,"ĠuppmÃ¤rksammade":10762,"ĠTroll":10763,"ĠJones":10764,"ĠskÃ¤ra":10765,"ĠFritid":10766,"fver":10767,"Ġuppman":10768,"verka":10769,"Ã¶ja":10770,"aria":10771,"ĠglÃ¶mde":10772,"ĠansÃ¶kningar":10773,"yc":10774,"Ġstabilt":10775,"ĠICA":10776,"Ġletade":10777,"Ġinsatsen":10778,"ĠHjÃ¤lp":10779,"lapp":10780,"ĠHav":10781,"Ġtalan":10782,"Ġvarnar":10783,"Ġannanstans":10784,"dans":10785,"egr":10786,"ĠframgÃ¥ngsrikt":10787,"bbe":10788,"fÃ¶rklar":10789,"Ġfaktura":10790,"Ġdepression":10791,"ĠhÃ¥llning":10792,"Ð¸":10793,"Ġhembygd":10794,"ĠNedan":10795,"ĠÃ¥tt":10796,"ĠfrÃ¥gat":10797,"Ġprodukterna":10798,"ĠPi":10799,"ĠTen":10800,"Ġidiot":10801,"Ġskyldiga":10802,"Ġkunskapen":10803,"ye":10804,"Ġvidta":10805,"ĠSve":10806,"ĠFÃ¤rjestad":10807,"issar":10808,"agan":10809,"savdelningen":10810,"Ġhuvudsakliga":10811,"Ġutarbet":10812,"Ġexistens":10813,"ĠnordÃ¶stra":10814,"Ġmellans":10815,"Ġsynen":10816,"ĠfÃ¶rd":10817,"aliteten":10818,"ĠfÃ¶rvar":10819,"ĠFilmer":10820,"format":10821,"estad":10822,"ĠGivetvis":10823,"Ġsund":10824,"Ġlova":10825,"ĠVinter":10826,"ush":10827,"Ġkemiska":10828,"ĠsÃ¶m":10829,"ĠCap":10830,"disk":10831,"mÃ¶tet":10832,"Ġonekligen":10833,"Ġfe":10834,"inet":10835,"skad":10836,"utstÃ¤llning":10837,"ĠskÃ¶tt":10838,"Ġcamping":10839,"Ġroligaste":10840,"Ġslutspelet":10841,"ĠsÃ¥gs":10842,"js":10843,"Ð°":10844,"Ġanslaget":10845,"ĠfÃ¶reg":10846,"festivalen":10847,"ĠSamling":10848,"teringen":10849,"Ã¤cka":10850,"ĠunderstÃ¶d":10851,"Ġ1954":10852,"ĠutÃ¶ka":10853,"Ġkollektivavtal":10854,"ĠLED":10855,"ĠglÃ¤djande":10856,"Ġexterna":10857,"ĠfÃ¶rsÃ¤lj":10858,"Ġrepresent":10859,"ĠUniversity":10860,"borna":10861,"ĠDis":10862,"ĠGi":10863,"Ġpresenter":10864,"ĠMary":10865,"Ġkongressen":10866,"ĠfÃ¶relÃ¤sning":10867,"ĠdÃ¶ds":10868,"Ġstunden":10869,"Ġintens":10870,"Ġcharm":10871,"Ġq":10872,"ĠrÃ¤tter":10873,"figur":10874,"rafiken":10875,"ĠtilltrÃ¤de":10876,"ĠChris":10877,"Ġbroder":10878,"DE":10879,"Ġsens":10880,"ĠHÃ¤sten":10881,"Ġarbetslivet":10882,"vat":10883,"etal":10884,"ĠLis":10885,"ĠmÃ¤ssan":10886,"sindustrin":10887,"ĠsjukskÃ¶terska":10888,"mos":10889,"ĠSthlm":10890,"hag":10891,"Ġkollat":10892,"spÃ¥ret":10893,"Ġropade":10894,"Ġarbetsplatsen":10895,"ĠSvaret":10896,"Ġbefri":10897,"Ġsnett":10898,"Ġpresst":10899,"Ġlandade":10900,"Ġlektion":10901,"Ġsjunkit":10902,"ĠChelsea":10903,"Ġvaken":10904,"funktion":10905,"Ã¤ller":10906,"ĠrÃ¥dgivare":10907,"Ġtegel":10908,"Ģ":10909,"Ã¥ende":10910,"Ġmoderat":10911,"Ġvarmare":10912,"pell":10913,"stider":10914,"Ġvaran":10915,"smot":10916,"Ġtales":10917,"ĠSOM":10918,"ĠEllen":10919,"ĠGlobal":10920,"ĠTem":10921,"Ġsmala":10922,"Ġparagraf":10923,"skt":10924,"Ã¤nnens":10925,"ĠCreek":10926,"Ġac":10927,"jort":10928,"Ġmoral":10929,"Ġfunderingar":10930,"Ġomedelbar":10931,"Ġdrottning":10932,"Ġmi":10933,"sprocess":10934,"ĠlÃ¶rdagens":10935,"ĠbrÃ¶stet":10936,"Ġviner":10937,"Ġgam":10938,"Ġstudenten":10939,"ĠfÃ¶rvÃ¤nta":10940,"ĠbesÃ¶karna":10941,"Ġcar":10942,"hÃ¥llet":10943,"cancer":10944,"Ġstadigt":10945,"ĠstÃ¥ndpunkt":10946,"ĠVolkswagen":10947,"ĠfÃ¶rstÃ¤rka":10948,"ĠLinde":10949,"edel":10950,"ĠKap":10951,"ĠJimmie":10952,"gers":10953,"givare":10954,"ĠÃĦlv":10955,"Ġdiagnos":10956,"ĠBir":10957,"reda":10958,"ĠfarvÃ¤l":10959,"verktyg":10960,"Ã¶ten":10961,"Ã¤mmande":10962,"Ġkika":10963,"Ġstationen":10964,"Ġcitat":10965,"mil":10966,"ĠLindqvist":10967,"Ġflitigt":10968,"Ġnar":10969,"ĠHarald":10970,"Ġlove":10971,"tav":10972,"kol":10973,"Ġskrivande":10974,"ĠOb":10975,"Ġlung":10976,"ĠstÃ¤ndiga":10977,"ĠTest":10978,"Ġpannan":10979,"rÃ¶st":10980,"vade":10981,"senhet":10982,"ologen":10983,"Ġmys":10984,"ĠTall":10985,"ĠbÃ¥":10986,"Ġgrat":10987,"fÃ¶rsÃ¶k":10988,"onde":10989,"Ġlyckligt":10990,"ĠsjÃ¤lvfallet":10991,"ĠkyrkogÃ¥rd":10992,"tas":10993,"ĠBag":10994,"cht":10995,"ĠÃ¥ttonde":10996,"Ġolympiska":10997,"Ġspeed":10998,"XX":10999,"Ĳ":11000,"Ġkalas":11001,"ĠglasÃ¶gon":11002,"behov":11003,"vÃ¤nd":11004,"rapporter":11005,"ĠPower":11006,"Ġskarp":11007,"Ġvisades":11008,"ĠaktieÃ¤gare":11009,"Ġutspel":11010,"udd":11011,"ĠkÃ¤nslig":11012,"Ġ1951":11013,"debatten":11014,"Ġframt":11015,"ĠEklund":11016,"ĠExempelvis":11017,"Ã¥la":11018,"Ġkomp":11019,"ifikation":11020,"ĠDÃ¤rtill":11021,"ĠsÃ¤krare":11022,"ĠSU":11023,"Ġtfn":11024,"ĠlÃ¤kt":11025,"Ġmr":11026,"ĠfÃ¶rbjudet":11027,"Ġforskarna":11028,"Ġhygien":11029,"uppgift":11030,"Ġoroa":11031,"sÃ¤ttningar":11032,"uli":11033,"ĠpoÃ¤ngen":11034,"ĠDick":11035,"Ġmuse":11036,"stin":11037,"ales":11038,"ental":11039,"ĠCan":11040,"Ã¥ringen":11041,"Ġduger":11042,"Ġsnar":11043,"skontroll":11044,"vt":11045,"ĠfÃ¶rhÃ¥llandevis":11046,"andets":11047,"Ġsaknades":11048,"ĠMedel":11049,"ĠgÃ¥vor":11050,"ĠnÃ¥gorlunda":11051,"Ġhyfsat":11052,"Ġreagera":11053,"ĠvÃ¤ga":11054,"sÃ¤g":11055,"Ġkommunist":11056,"Ġkopplas":11057,"Ġpizza":11058,"Į":11059,"ĠJÃ¤m":11060,"Ġegentliga":11061,"Ġbig":11062,"ĠAS":11063,"Ġassistans":11064,"Ġhobby":11065,"Ġavbr":11066,"ĠVol":11067,"33":11068,"ĠÃĦng":11069,"ĠÃ¶versyn":11070,"Ġarenan":11071,"Ġmeningar":11072,"ere":11073,"Ġanord":11074,"Ġabonnemang":11075,"Ġbjuds":11076,"Ġaktiebolag":11077,"aket":11078,"Ġturn":11079,"ycken":11080,"é":11081,"Ġtryckte":11082,"ĠKÃ¤rlek":11083,"Ã¤lj":11084,"row":11085,"Ġankn":11086,"avgift":11087,"Ġ1949":11088,"procent":11089,"ĠUD":11090,"ĠmÃ¥lskytt":11091,"skvÃ¤ll":11092,"Ġstolar":11093,"Ġbev":11094,"EF":11095,"ĠBNP":11096,"Ã¤mnden":11097,"Ġkomplement":11098,"Ġanpassade":11099,"ĠÃħR":11100,"ned":11101,"ĠLuc":11102,"ĠmÃ¶rd":11103,"sket":11104,"Ġinsett":11105,"Ġpraxis":11106,"ĠinvÃ¥narna":11107,"ĠGabriel":11108,"lÃ¶shet":11109,"ĠBÃ¥t":11110,"ĠVe":11111,"ĠOk":11112,"ATT":11113,"Ġavancerad":11114,"Ġkvinnans":11115,"ĠfÃ¶rsÃ¤m":11116,"Ġadvent":11117,"ĠEll":11118,"Ġkritiker":11119,"æ":11120,"Ġprylar":11121,"ĠSammanlagt":11122,"emang":11123,"ĠhÃ¤nvisning":11124,"linje":11125,"ĠÃ¤garna":11126,"Ã¤stare":11127,"Ġbefattning":11128,"ĠkommittÃ©":11129,"Ġkronan":11130,"Ġbetalade":11131,"ĠtvÃ¥an":11132,"Ġsats":11133,"oman":11134,"sfri":11135,"vist":11136,"ĠDM":11137,"ĠmÃ¤rka":11138,"skytt":11139,"Ġsysslar":11140,"ĠskÃ¤rmen":11141,"mitt":11142,"ĠfÃ¶rdelas":11143,"ree":11144,"DER":11145,"Ġberget":11146,"ĠMyr":11147,"olycka":11148,"porter":11149,"ytor":11150,"Ġsovjet":11151,"Ġposter":11152,"sval":11153,"ĠNer":11154,"ĠArgentina":11155,"vÃ¥g":11156,"ĠgodkÃ¤nner":11157,"ĠdokumentÃ¤r":11158,"ĠhÃ¤mtat":11159,"ĠHund":11160,"Ġvardagar":11161,"Ġansvara":11162,"ĠFy":11163,"ĠvÃ¤v":11164,"iotal":11165,"ĠCre":11166,"priserna":11167,"esb":11168,"ĠIngenting":11169,"Ġservera":11170,"Ġkontraktet":11171,"ĠdÃ¶mts":11172,"Ġklok":11173,"Ġvarsin":11174,"skraft":11175,"ĠÃĸrn":11176,"Ġavseenden":11177,"Ġmidnatt":11178,"ĠfÃ¶ranled":11179,"ĠTag":11180,"ĠdrÃ¶mmen":11181,"ĠÃ¥talas":11182,"ĠGill":11183,"ĠterrÃ¤ng":11184,"Ġfixar":11185,"ĠKir":11186,"umman":11187,"Ġfrig":11188,"smyndigheten":11189,"Ġbiograf":11190,"komst":11191,"ĠEleverna":11192,"ĠAntingen":11193,"Ġstyrkor":11194,"ĠNO":11195,"lorna":11196,"Ġdominerande":11197,"Ġslakt":11198,"Ġredovisa":11199,"ĠSÃ¶derberg":11200,"riga":11201,"Ġgrupperna":11202,"hjÃ¤l":11203,"Ġtestade":11204,"Ġving":11205,"ĠÃĸrnskÃ¶ldsvik":11206,"ĠJoe":11207,"ĠvÃ¤xtlighet":11208,"ĠvarumÃ¤rken":11209,"Ġtolkas":11210,"ĠfÃ¶rstÃ¤rkning":11211,"Ġtrakt":11212,"ĠbekÃ¤mpa":11213,"ĠPierre":11214,"forskning":11215,"ĠfÃ¶rslagen":11216,"viks":11217,"ĠrÃ¥kat":11218,"Ġplatta":11219,"snÃ¤mndens":11220,"Ġvandra":11221,"sakt":11222,"Ġsegel":11223,"Ġdylika":11224,"ussen":11225,"Ġtjejen":11226,"Ġmedverkade":11227,"Ġstek":11228,"ĠÃ¥ringar":11229,"ĠrÃ¤ddning":11230,"Ġmiddagen":11231,"kÃ¤r":11232,"halt":11233,"Ġpant":11234,"Ġinnehav":11235,"Ġsko":11236,"Ġfixade":11237,"ĠKevin":11238,"inc":11239,"Ġkatten":11240,"Ġvideon":11241,"atts":11242,"ĠbÃ¶":11243,"ĠBoll":11244,"entern":11245,"ĠDamer":11246,"Ġ1953":11247,"ĠKungs":11248,"inska":11249,"anst":11250,"ĠosÃ¤kra":11251,"Ġrast":11252,"ĠbÃ¤ste":11253,"ĠVikt":11254,"Ġfrivillig":11255,"ĠKlubb":11256,"ĠnÃ¶t":11257,"NINGAR":11258,"Ã¤nningen":11259,"Ġyrken":11260,"ĠregissÃ¶ren":11261,"Ġveckors":11262,"ĠVÃ¤rnamo":11263,"Ġsamordning":11264,"Ġkorrespond":11265,"Ġskoll":11266,"ĠXXX":11267,"ĠAsk":11268,"ĠuppehÃ¥llstillstÃ¥nd":11269,"ĠElit":11270,"ĠredaktÃ¶r":11271,"Ġavslutande":11272,"ĠBO":11273,"ĠÃ¶versÃ¤ttning":11274,"Ġdaglig":11275,"Ġmoderaterna":11276,"ĠpÃ¥minna":11277,"EST":11278,"ĠFÃ¶dd":11279,"ĠJonathan":11280,"ĠbokfÃ¶ring":11281,"Ġupplevelsen":11282,"varu":11283,"ĠAktie":11284,"ersÃ¤ttning":11285,"Ġindirekt":11286,"omer":11287,"fen":11288,"ĠKF":11289,"efter":11290,"ĠfÃ¶rklar":11291,"Ġgirls":11292,"Ġham":11293,"oret":11294,"Ġwill":11295,"Ġlike":11296,"ĠsjÃ¤lvt":11297,"ĠomhÃ¤nder":11298,"ĠÃ¤mnes":11299,"ĠFaktum":11300,"Ġfader":11301,"ĠhÃ¶js":11302,"ĠRasmus":11303,"ction":11304,"ĠGert":11305,"ĠBla":11306,"polisen":11307,"Ġproducent":11308,"Ġitu":11309,"ĠSofie":11310,"Ġpromenader":11311,"sformer":11312,"Ġutdel":11313,"Ġpasserade":11314,"oda":11315,"ĠfÃ¶rtroendet":11316,"ĠVideos":11317,"ĠResten":11318,"Ġhu":11319,"ĠSar":11320,"ĠutmÃ¤rkta":11321,"ĠnÃ¤tterna":11322,"ĠinskrÃ¤n":11323,"samheten":11324,"ĠSyl":11325,"Ġjagar":11326,"Ã¤mna":11327,"Ġnacken":11328,"Ġtop":11329,"uppgifterna":11330,"ĠbegrÃ¤nsningar":11331,"Ġful":11332,"ĠinsÃ¤ndare":11333,"ĠLagen":11334,"ĠmÃ¥lade":11335,"Ġspeglar":11336,"ĠSnabb":11337,"ĠgenomgÃ¥ende":11338,"ĠTrÃ¤n":11339,"ĠKA":11340,"Ġig":11341,"ĠlÃ¤nets":11342,"lÃ¤r":11343,"Ġcigar":11344,"ĠjÃ¤ttekul":11345,"ĠmisstÃ¤nkte":11346,"Ġtagen":11347,"ĠmÃ¤ter":11348,"Ġfars":11349,"Ã¤nga":11350,"ĠskÃ¥despel":11351,"ĠhÃ¶rdes":11352,"ĠMicke":11353,"ĠMis":11354,"ĠnÃ¤mnts":11355,"Ã¤ttning":11356,"Ġye":11357,"Ġmotsatt":11358,"ĠsÃ¤llsynt":11359,"ates":11360,"ĠDagbladet":11361,"Ġbitter":11362,"sfÃ¶rvaltningen":11363,"Ġfemtio":11364,"Ġgynnar":11365,"ĠfÃ¶rblir":11366,"poÃ¤ng":11367,"Ġpojk":11368,"mask":11369,"sklass":11370,"ĠNot":11371,"ĠlÃ¶nsamhet":11372,"rÃ¤tter":11373,"Ġhandlingen":11374,"Ġmysiga":11375,"iseringen":11376,"skri":11377,"ligan":11378,"Ġbrann":11379,"ĠnybÃ¶rjare":11380,"ĠKungsbacka":11381,"Ã¶tet":11382,"spl":11383,"ĠfÃ¶rse":11384,"Ġstaterna":11385,"Ġvarandras":11386,"ĠÃ¶ronen":11387,"Ġ178":11388,"ĠgenomgÃ¥tt":11389,"Ġodla":11390,"inga":11391,"ynt":11392,"play":11393,"Ġblandade":11394,"Ġkanalen":11395,"Ġjudiska":11396,"vÃ¤":11397,"ĠÃ¥skÃ¥d":11398,"tagit":11399,"ĠjÃ¤vligt":11400,"ĠDD":11401,"ĠAnmÃ¤l":11402,"ĠtÃ¤vlingarna":11403,"Å«":11404,"marker":11405,"Ġhom":11406,"Ġhave":11407,"ĠÃ¶nskvÃ¤rt":11408,"ĠdÃ¶lja":11409,"28":11410,"ĠlÃ¤saren":11411,"ĠsjukskÃ¶terskor":11412,"smÃ¥let":11413,"uga":11414,"Ġfol":11415,"ĠtrÃ¤den":11416,"Ġmisslyckas":11417,"ĠCH":11418,"gjorda":11419,"ĠGoteborg":11420,"blod":11421,"stall":11422,"Ġspan":11423,"regl":11424,"ĠJuli":11425,"Ġbruna":11426,"ĠÃ¶ppettider":11427,"ĠIvan":11428,"cent":11429,"Ġmotsats":11430,"Ã¤de":11431,"Ġdikter":11432,"Ġkvalificerad":11433,"Ġstimulera":11434,"ific":11435,"ĠSanna":11436,"Ġalbumet":11437,"SD":11438,"Ġknyta":11439,"ĠdrÃ¶jde":11440,"Ġmeriter":11441,"Ġll":11442,"ĠVÃ¤rldens":11443,"Ġhoppet":11444,"Ġrosor":11445,"Ġarkitektur":11446,"ĠbestÃ¤mmelse":11447,"Ġuppdatera":11448,"ĠPA":11449,"Ġyoga":11450,"ĠslutÃ¤ndan":11451,"ĠWahl":11452,"skij":11453,"ĠkvarstÃ¥r":11454,"Ġsvaren":11455,"Ġordnade":11456,"kaka":11457,"ĠOx":11458,"Ġstyck":11459,"ÃĦTT":11460,"ĠKuk":11461,"ĠSalt":11462,"ĠEL":11463,"ĠmÃ¥dde":11464,"Ġotr":11465,"Ġsed":11466,"Ġrapporterade":11467,"Ġstriden":11468,"ĠTherese":11469,"Ġforna":11470,"Ġintervjun":11471,"Ġfysik":11472,"Ġorganis":11473,"Ġriskera":11474,"Ġnew":11475,"ĠLÃ¤get":11476,"skogen":11477,"Ġsmink":11478,"ukt":11479,"Ġskylla":11480,"Ġaktierna":11481,"ografiska":11482,"ĠPremier":11483,"Ġtvingade":11484,"Ġ750":11485,"erier":11486,"Ã©s":11487,"Ġtorrt":11488,"yo":11489,"ĠNÃ¤ra":11490,"Ġnackdelar":11491,"ĠFL":11492,"ĠVitt":11493,"ĠgodkÃ¤nda":11494,"ĠprÃ¤glas":11495,"Ġindividuell":11496,"Ġskift":11497,"ĠGam":11498,"Ġdryga":11499,"Ð´":11500,"Ġinrikt":11501,"ĠbitrÃ¤dande":11502,"Ã¶den":11503,"Ġdistribution":11504,"ĠenkÃ¤t":11505,"Ġbibe":11506,"ĠGold":11507,"ĠTimes":11508,"Ġsign":11509,"Ġdepartementet":11510,"Ġsoldat":11511,"ĠMS":11512,"Ġstannat":11513,"Ġtyskarna":11514,"Ġvas":11515,"Ġbiologiska":11516,"Ġutrikesp":11517,"Ã¤ste":11518,"ĠSkillnaden":11519,"ĠfÃ¶rhoppning":11520,"Ġtycktes":11521,"ĠnÃ¤rma":11522,"utskott":11523,"Ġmotorcykel":11524,"ĠCharlie":11525,"STAD":11526,"isternas":11527,"dor":11528,"Ġeffekterna":11529,"ĠBach":11530,"ĠWhite":11531,"ĠfÃ¶ref":11532,"ĠnÃ¤rstÃ¥ende":11533,"ĠslÃ¤":11534,"oppar":11535,"ĠnÃ¥s":11536,"Ġuttrycket":11537,"Ġkroppar":11538,"Ġpositioner":11539,"Ġresande":11540,"ĠTimrÃ¥":11541,"Ġspill":11542,"Ġanpassas":11543,"ĠstjÃ¤rnan":11544,"slan":11545,"ĠLiberalerna":11546,"Ġsittande":11547,"Ġpappan":11548,"Ġstyrelsens":11549,"lyst":11550,"Ġbyggts":11551,"Ġmatlagning":11552,"sjuk":11553,"Ġeffektivare":11554,"Ġriskerna":11555,"yns":11556,"intresserade":11557,"Ġvanilj":11558,"Ġtraditionellt":11559,"Ġunderskott":11560,"Ġuppsala":11561,"AMN":11562,"unnen":11563,"Ġhatt":11564,"Ġterm":11565,"ĠÃ¶va":11566,"Ġhonung":11567,"Ã¥sen":11568,"sliv":11569,"ĠLad":11570,"snÃ¤s":11571,"ĠOftast":11572,"Ġvers":11573,"Ġbrinnande":11574,"Ġmiste":11575,"ĠbestÃ¤mda":11576,"ĠSov":11577,"Ġstackars":11578,"sstÃ¶d":11579,"Ġattraktiv":11580,"ĠPil":11581,"dalen":11582,"okalen":11583,"ningssystem":11584,"ĠMur":11585,"Ħ":11586,"Ġfattigdom":11587,"Ġink":11588,"Ġuppvakt":11589,"ĠKAR":11590,"Ġpressa":11591,"ĠaffÃ¤rs":11592,"beg":11593,"merna":11594,"uni":11595,"Ġnyheten":11596,"narna":11597,"Ġladdar":11598,"cis":11599,"ĠStyr":11600,"shandel":11601,"Ġpsykolog":11602,"ĠKin":11603,"ĠrÃ¤ttighet":11604,"spolis":11605,"69":11606,"avdelning":11607,"ĠTjej":11608,"Ġetta":11609,"Ġhoppades":11610,"ĠAbsolut":11611,"ĠJÃ¤rn":11612,"Ġteckna":11613,"Ġfriheten":11614,"Ġskattef":11615,"ĠStaden":11616,"Ġformellt":11617,"ĠFÃ¶rhoppningsvis":11618,"festival":11619,"uld":11620,"ĠDes":11621,"ĠtrÃ¤der":11622,"Ġintress":11623,"27":11624,"ĠRem":11625,"ĠSÃ¤g":11626,"ĠsÃ¥vitt":11627,"rÃ¥k":11628,"ĠsjÃ¤lvstÃ¤ndighet":11629,"enskap":11630,"ĠLidkÃ¶ping":11631,"odling":11632,"Ġtyckt":11633,"ĠFrisk":11634,"Ġprincipen":11635,"ĠProjekt":11636,"Ġframkom":11637,"fat":11638,"ati":11639,"ĠbekvÃ¤ma":11640,"YR":11641,"ĠMart":11642,"klart":11643,"Ġskadan":11644,"ĠÃ¶verfÃ¶r":11645,"Ġrinner":11646,"ĠFB":11647,"Ġkreativ":11648,"Ġbesluten":11649,"ĠSÃ¶lvesborg":11650,"grÃ¤ns":11651,"iera":11652,"ĠSym":11653,"ĠlÃ¤g":11654,"Ġmammas":11655,"ĠavstÃ¤ngd":11656,"Ġgatu":11657,"ĠlÃ¤cker":11658,"istor":11659,"Ġuppskattas":11660,"mes":11661,"Ġekologisk":11662,"ĠfÃ¶rhandla":11663,"cm":11664,"stern":11665,"ĠHÃ¤st":11666,"vensk":11667,"Ġsikte":11668,"ĠlÃ¥tarna":11669,"upplevelse":11670,"frÃ¥g":11671,"Ġfelaktiga":11672,"ĠEver":11673,"Ġone":11674,"Ġryssarna":11675,"ĠVara":11676,"Ġfusk":11677,"Ġbetraktar":11678,"ĠmÃ¤nsklig":11679,"ĠFan":11680,"sposten":11681,"ĠkÃ¤mpat":11682,"Ġrelevanta":11683,"Ġhaver":11684,"ĠfÃ¶rÃ¤ndringen":11685,"Ġkakor":11686,"Ġgrundskolan":11687,"Ġmanlig":11688,"ĠDigital":11689,"ĠdÃ¶ttrar":11690,"ĠverkstÃ¤llande":11691,"smuseet":11692,"Ġleksak":11693,"ĠvÃ¤lkomnar":11694,"ĠhovrÃ¤tt":11695,"dÃ¥":11696,"Ġkonservativa":11697,"Ġtillverkade":11698,"ĠFÃ¶rsÃ¤kring":11699,"ĠSkar":11700,"Ã¤md":11701,"ĠstÃ¶djer":11702,"Ġ1942":11703,"Ġliberala":11704,"ĠArbetsfÃ¶rmedlingen":11705,"ĠKristus":11706,"jel":11707,"Ġ1941":11708,"ĠÃĸresund":11709,"Ġverksamma":11710,"ĠAndrÃ©":11711,"ĠNato":11712,"gin":11713,"Ġrehabilitering":11714,"ĠKommittÃ©n":11715,"kod":11716,"ĠSvante":11717,"jest":11718,"ĠKristersson":11719,"ĠglÃ¤djen":11720,"Ġhelger":11721,"ĠLundqvist":11722,"stans":11723,"Ġfingrarna":11724,"ĠPorrfilm":11725,"ĠSF":11726,"CC":11727,"anstÃ¤llda":11728,"ĠfÃ¶rtryck":11729,"stift":11730,"ĠFÃ¶ljande":11731,"ado":11732,"ĠHjÃ¤rt":11733,"Ġtveksam":11734,"ĠVimmerby":11735,"Ġungar":11736,"ĠSÃ¤kerhet":11737,"Ġatom":11738,"vÃ¤der":11739,"Ġbrevet":11740,"huvud":11741,"nivÃ¥n":11742,"aa":11743,"ierad":11744,"Ã¶relsen":11745,"Ã¥ndet":11746,"ÃĦLL":11747,"Ġork":11748,"ĠfÃ¶rmÃ¥ner":11749,"aken":11750,"Ġpropaganda":11751,"ologiskt":11752,"ocker":11753,"Ġgifter":11754,"ĠIrland":11755,"Ġtionde":11756,"Ġgenomsnittliga":11757,"skommun":11758,"Ġdimension":11759,"Ġbull":11760,"Ġspins":11761,"Ġtraditioner":11762,"Ġromanen":11763,"ĠveterinÃ¤r":11764,"Ġprioritera":11765,"ĠSpa":11766,"Ġriva":11767,"Ġoj":11768,"Ġetablering":11769,"udden":11770,"baserade":11771,"Ġstel":11772,"jÃ¤ll":11773,"ĠHÃ¶gsta":11774,"ĠTransport":11775,"Ġbeteck":11776,"Ġsval":11777,"yft":11778,"Ġexpansion":11779,"Ġfadern":11780,"fe":11781,"igh":11782,"produkt":11783,"adel":11784,"ĠER":11785,"brev":11786,"Ġutspelar":11787,"kultur":11788,"Ġbetydde":11789,"ĠCalle":11790,"ĠDennis":11791,"inda":11792,"lÃ¤nd":11793,"Ġborr":11794,"Ġolj":11795,"Ġkvalificerade":11796,"Ġassist":11797,"ĠbestÃ¤ll":11798,"Ġsovjetiska":11799,"Ã¤nna":11800,"Ġgymnasium":11801,"ĠRob":11802,"win":11803,"Ġfastnade":11804,"sens":11805,"ĠTorg":11806,"ĠbetrÃ¤ffar":11807,"Ġavsl":11808,"ĠTranÃ¥s":11809,"Ġakuta":11810,"ĠtÃ¤nderna":11811,"ory":11812,"gÃ¤ng":11813,"ĠapplÃ¥":11814,"Ġhotet":11815,"ĠfÃ¶rvandlas":11816,"ĠLek":11817,"Ġklick":11818,"uth":11819,"ĠnedgÃ¥ng":11820,"ĠdrÃ¶jer":11821,"sutbildning":11822,"Ġinnevarande":11823,"Ġbon":11824,"Ġleds":11825,"ĠÃ¥terkomma":11826,"itioner":11827,"god":11828,"ĠVattenfall":11829,"Ġlangivare":11830,"ped":11831,"intyg":11832,"Ġuppskatta":11833,"Ġtrappan":11834,"Ġkusin":11835,"Ġfonden":11836,"ĠKlas":11837,"Ġsamlats":11838,"ĠRut":11839,"urn":11840,"Ġtillsatt":11841,"ĠslÃ¤kten":11842,"Ġago":11843,"Ġensamkommande":11844,"Ġsannerligen":11845,"Ġsw":11846,"Ġrevision":11847,"ICK":11848,"ĠanhÃ¤ngare":11849,"ĠfÃ¶rebild":11850,"day":11851,"ĠvÃ¤rdefull":11852,"sÃ¤nd":11853,"vallen":11854,"Ġtomat":11855,"Ġtorn":11856,"ĠAdress":11857,"Ġstrategier":11858,"hÃ¤ls":11859,"ĠrÃ¶rlig":11860,"Ġstoppar":11861,"ĠBeg":11862,"Ġalliansen":11863,"ĠpÃ¥peka":11864,"Ġkapp":11865,"ĠspÃ¥ra":11866,"givningen":11867,"Ġspecifikt":11868,"ĠVetlanda":11869,"ĠanmÃ¤lningar":11870,"bek":11871,"ange":11872,"centralen":11873,"Ġskulden":11874,"ĠsÃ¤nd":11875,"etti":11876,"sÃ¤songen":11877,"hÃ¤n":11878,"ĠTopp":11879,"Ġkem":11880,"rigt":11881,"Ġinstruktioner":11882,"Ġmeddelat":11883,"ĠLim":11884,"perioden":11885,"ĠSaint":11886,"Ġuppskattade":11887,"ĠLinkÃ¶pings":11888,"Ġuppfattar":11889,"stÃ¤ng":11890,"Ġelektronik":11891,"sfest":11892,"Ġmobila":11893,"ower":11894,"Ġklient":11895,"Ġbanor":11896,"Ġpedagogiska":11897,"Ġfur":11898,"Ġbin":11899,"ĠupptrÃ¤da":11900,"¡":11901,"Ġavslutat":11902,"Ġgot":11903,"juter":11904,"ago":11905,"ĠDenne":11906,"ĠHolmberg":11907,"Ġbergen":11908,"ingsl":11909,"ĠvarifrÃ¥n":11910,"esh":11911,"ģ":11912,"Ġbasket":11913,"sgr":11914,"agatan":11915,"utredning":11916,"ĠLyck":11917,"Ġkrets":11918,"ĠhÃ¥llbara":11919,"ĠKungliga":11920,"Ġkomplettera":11921,"ĠfastÃ¤n":11922,"sutveckling":11923,"Ġslutsatsen":11924,"inder":11925,"Ġfota":11926,"Ġkomfort":11927,"ĠhÃ¶jden":11928,"ĠhuvudvÃ¤rk":11929,"Ġredovis":11930,"Ã¥kning":11931,"ĠðŁĺī":11932,"Ġfasc":11933,"stenar":11934,"ĠfÃ¶rsÃ¤kringsbolag":11935,"ĠdrÃ¶ja":11936,"bur":11937,"ĠsydvÃ¤stra":11938,"ĠmÃ¶tas":11939,"Ġviktigast":11940,"ĠskÃ¥despelaren":11941,"Ġbu":11942,"Ġhalt":11943,"Ġbesegrade":11944,"Ġyr":11945,"Ġpersonbil":11946,"Ġstrej":11947,"ĠgrÃ¤t":11948,"ĠstrÃ¶":11949,"Ã¥det":11950,"ĠNed":11951,"hÃ¥llit":11952,"Ġannon":11953,"Ġlagring":11954,"ses":11955,"Ġfiska":11956,"Ã¤des":11957,"ĠvÃ¥ningar":11958,"Ġsagts":11959,"Ġblomma":11960,"Ã¤cken":11961,"snummer":11962,"Ġdrunk":11963,"Ġsill":11964,"ĠgenomfÃ¶rde":11965,"Ġescorts":11966,"ĠLov":11967,"ĠLinder":11968,"ĠMA":11969,"skoll":11970,"hed":11971,"ĠLinnÃ©":11972,"ĠBredden":11973,"ĠklÃ¤dd":11974,"ĠstÃ¶der":11975,"ĠHÃĦR":11976,"Ġanvisningar":11977,"ĠUtstÃ¤llningen":11978,"ĠFÃ¶rvalt":11979,"ĠskÃ¤gg":11980,"Ġkondition":11981,"ĠstrÃ¤ck":11982,"ymp":11983,"Ġrys":11984,"ĠlÃ¤karna":11985,"Ġinuti":11986,"sÃ¥r":11987,"Ġkomedi":11988,"Ġvindkraft":11989,"Ġdays":11990,"Ġfunderade":11991,"Ġtillg":11992,"ving":11993,"stag":11994,"Ġerfarna":11995,"ians":11996,"Ġryss":11997,"ĠnÃ¤rliggande":11998,"ĠKunskap":11999,"Ġbehandlingar":12000,"ĠGruppen":12001,"ĠSkansen":12002,"ĠlÃ¶rdagar":12003,"etag":12004,"Ġ115":12005,"odd":12006,"ĠmÃ¶tesplats":12007,"PR":12008,"Ġteleg":12009,"Ġomkom":12010,"Ã¶ld":12011,"illar":12012,"ĠBÃ¶rja":12013,"ofta":12014,"wood":12015,"Ġideella":12016,"Ġleasing":12017,"Ġgrattis":12018,"ĠIntress":12019,"ĠfÃ¶rdela":12020,"jung":12021,"ime":12022,"Ġbaserade":12023,"Ġbilaga":12024,"ĠfÃ¶rflutna":12025,"Ġkylan":12026,"Ġhalvan":12027,"OD":12028,"Ġstyrs":12029,"zi":12030,"ĠstÃ¤rker":12031,"Ġventil":12032,"ĠEfterÃ¥t":12033,"Ġkreativitet":12034,"sked":12035,"Ġslutsats":12036,"Ġgrenar":12037,"ningsl":12038,"Ġskruv":12039,"ĠvÃ¤ldiga":12040,"ĠZetter":12041,"ĠTi":12042,"ĠskÃ¤rpa":12043,"ĠtonÃ¥ringar":12044,"Ġburk":12045,"ĠfÃ¶ljs":12046,"ĠMobil":12047,"Ġfula":12048,"ĠfÃ¶rsv":12049,"llerna":12050,"block":12051,"Ġturer":12052,"lingarna":12053,"trafiken":12054,"UL":12055,"ĠPolit":12056,"Ġskrivbord":12057,"Ġox":12058,"ĠKalla":12059,"Ġnamnen":12060,"Ġ1938":12061,"Ġarren":12062,"farten":12063,"Ġinvandrar":12064,"ĠlÃ¶ften":12065,"Ġtros":12066,"kass":12067,"kraften":12068,"hm":12069,"Ġutses":12070,"Ġtavlor":12071,"ĠHopp":12072,"ugh":12073,"ĠfÃ¶rbereder":12074,"ding":12075,"irekt":12076,"ĠtrÃ¥kig":12077,"ĠLam":12078,"Ġvarvet":12079,"Ġhuvudrollen":12080,"ĠinsÃ¤ttning":12081,"jÃ¤":12082,"Ġblandas":12083,"banor":12084,"Ã¤get":12085,"ĠÃħret":12086,"ĠkÃ¤llaren":12087,"ĠovanpÃ¥":12088,"ĠavrÃ¤tt":12089,"drÃ¤kt":12090,"ĠEinar":12091,"ĠgrÃ¤va":12092,"ĠjÃ¤ttel":12093,"Ġplaneringen":12094,"ĠPhil":12095,"uropa":12096,"ĠhÃ¤ndelserna":12097,"ĠMagdalena":12098,"Ġbeaktas":12099,"Ġupptag":12100,"ĠFalk":12101,"Ġsus":12102,"institutet":12103,"Ġbrittisk":12104,"erska":12105,"fÃ¶rmÃ¥ga":12106,"barhet":12107,"Ġbakterier":12108,"ĠiPhone":12109,"bat":12110,"ĠrÃ¥da":12111,"ĠKvar":12112,"oken":12113,"Ġsubvention":12114,"ĠSpecial":12115,"Ġextrema":12116,"ĠLiber":12117,"ĠtÃ¤nda":12118,"Ġarten":12119,"iffror":12120,"Ġbenet":12121,"Ġdim":12122,"Ġgivande":12123,"ĠText":12124,"Ġradi":12125,"ĠAT":12126,"text":12127,"Ġbaby":12128,"ellen":12129,"ĠÃ¤m":12130,"stÃ¤llande":12131,"ĠnÃ¤mnd":12132,"Ġluktar":12133,"ĠDrag":12134,"ĠNik":12135,"icka":12136,"Ġbrottslighet":12137,"ĠmÃ¶bel":12138,"osl":12139,"mÃ¥let":12140,"ikar":12141,"ĠSolen":12142,"motor":12143,"ĠRub":12144,"ĠMattsson":12145,"Ġmammor":12146,"Ġpatent":12147,"ĠOut":12148,"Ġcheck":12149,"Ġanti":12150,"ĠPor":12151,"Ġuppvuxen":12152,"ĠKlimatet":12153,"Ġoc":12154,"Ġviljan":12155,"Ġprovat":12156,"ĠsammantrÃ¤det":12157,"Ġjur":12158,"Ġkollektivtrafik":12159,"Ġimponerad":12160,"Ġgivna":12161,"personer":12162,"ĠgrÃ¤nserna":12163,"ĠfÃ¶rtjust":12164,"amma":12165,"rÃ¤den":12166,"stÃ¶r":12167,"Ġidrotten":12168,"zar":12169,"Ġdocent":12170,"ydd":12171,"ĠentreprenÃ¶r":12172,"ĠtrÃ¤da":12173,"jÃ¤n":12174,"Ã¶rda":12175,"99":12176,"Ġprogramledare":12177,"edin":12178,"Ġstyrning":12179,"ĠsÃ¥ngare":12180,"44":12181,"mÃ¤l":12182,"UPP":12183,"Ġungdomen":12184,"ĠSamuelsson":12185,"ĠhÃ¶jda":12186,"Ġdokumentation":12187,"ĠGalleri":12188,"rie":12189,"iav":12190,"ĠgÃ¤rningsm":12191,"ĠberÃ¤kning":12192,"festen":12193,"ĠKors":12194,"junkt":12195,"ĠSamuel":12196,"anlÃ¤ggningar":12197,"Ġitalien":12198,"duk":12199,"Ġfloden":12200,"beroende":12201,"Ġlandar":12202,"ĠSolvalla":12203,"Ġskogar":12204,"ĠNT":12205,"Ġfost":12206,"issa":12207,"Ġfiras":12208,"Ġtidpunkten":12209,"Ġfascinerande":12210,"Ġ3000":12211,"ute":12212,"Ġpekade":12213,"Ġordf":12214,"Ġkonkurrenter":12215,"Ã¶jning":12216,"ĠRim":12217,"ĠTorsdag":12218,"idande":12219,"lic":12220,"Ġkandidater":12221,"ĠIslam":12222,"ĠBlue":12223,"Ġmedans":12224,"finans":12225,"ekonomiska":12226,"skÃ¤l":12227,"sbarn":12228,"Ġoffensiv":12229,"ĠTu":12230,"studier":12231,"Ġpublicerades":12232,"Ġanpassad":12233,"oria":12234,"skurs":12235,"stolen":12236,"ĠEksjÃ¶":12237,"ĠskÃ¶tte":12238,"Ġstre":12239,"sverk":12240,"Ġheliga":12241,"natt":12242,"ĠKrister":12243,"ĠtrÃ¤dgÃ¥rdar":12244,"ĠVÃ¤nersborg":12245,"ĠHamn":12246,"ĠbrÃ¥ttom":12247,"sfull":12248,"ĠAnge":12249,"sbron":12250,"Ġpucken":12251,"ĠskÃ¤rp":12252,"ĠBrunn":12253,"eled":12254,"hop":12255,"ĠServera":12256,"trÃ¤ning":12257,"alj":12258,"Ġinbjudan":12259,"ĠbegÃ¥":12260,"Ġdekor":12261,"Ġdist":12262,"yndigheterna":12263,"Ã¥ta":12264,"ĠfÃ¶ror":12265,"Ġuppror":12266,"ĠhyresgÃ¤ster":12267,"ĠMÃ¶ller":12268,"Ġimorse":12269,"Ġnyttigt":12270,"medicin":12271,"Ġbeklag":12272,"Ã¶dande":12273,"Ġblandat":12274,"Ġlekte":12275,"Ġdramatiska":12276,"ĠNorrlands":12277,"Ġlyssnat":12278,"Ġkomplex":12279,"ĠLee":12280,"omÃ¥l":12281,"ĠSala":12282,"Ġfrim":12283,"ĠOnsdag":12284,"Ġblack":12285,"Ġsistone":12286,"ĠjÃ¤mfÃ¶ras":12287,"ĠlÃ¥da":12288,"ĠmedfÃ¶rt":12289,"ĠRoy":12290,"ĠsjÃ¤lvklar":12291,"ĠSkatt":12292,"Ġdefens":12293,"ĠKrit":12294,"orterna":12295,"olv":12296,"helgen":12297,"Ġoav":12298,"Ġrycka":12299,"ĠfÃ¶rmiddag":12300,"ĠSto":12301,"ĠTeknik":12302,"ĠfÃ¶rverkliga":12303,"ĠIkea":12304,"ĠYoutube":12305,"Ġutmaningen":12306,"Ġagent":12307,"ĠUtanfÃ¶r":12308,"ĠAnder":12309,"ĠIM":12310,"Ġrensa":12311,"Ġintensiva":12312,"Ġbudskapet":12313,"ĠTage":12314,"alisera":12315,"Ġuttryckte":12316,"ĠBeach":12317,"ĠSB":12318,"Ġinhemska":12319,"chi":12320,"ĠHelen":12321,"Ġslagen":12322,"Ġobes":12323,"ĠerhÃ¶ll":12324,"itiva":12325,"ĠhÃ¤rad":12326,"Ġklassiskt":12327,"riska":12328,"ektorn":12329,"Ġengels":12330,"ĠfÃ¤lla":12331,"Ġturnering":12332,"utrustad":12333,"allad":12334,"ĠIntresset":12335,"smÃ¤nnen":12336,"terar":12337,"ĠAxelsson":12338,"Ġlastbilar":12339,"ĠfastighetsÃ¤gare":12340,"ĠMedlem":12341,"ĠMetall":12342,"ĠrÃ¶ka":12343,"Ġordnas":12344,"Ġsmaker":12345,"ĠKalifornien":12346,"Ġopinions":12347,"ĠLundin":12348,"ĠomvÃ¤xlande":12349,"Ġviset":12350,"ĠtÃ¤ck":12351,"ĠfÃ¶rutsatt":12352,"mande":12353,"Ġelektriska":12354,"ĠhovrÃ¤tten":12355,"Ġoroar":12356,"Ġmotivation":12357,"ĠtÃ¥rta":12358,"ĠHalv":12359,"ĠJun":12360,"Ġtempot":12361,"pps":12362,"ckta":12363,"ĠgrÃ¤set":12364,"Ī":12365,"ĠColl":12366,"Ġlist":12367,"ĠnÃ¶dvÃ¤ndigtvis":12368,"Ġrimliga":12369,"Ġmore":12370,"ĠpÃ¥pekade":12371,"ĠEkman":12372,"ĠNÃ¤ringsliv":12373,"Ġhol":12374,"sort":12375,"°":12376,"ĠÃ¶vervÃ¤ga":12377,"skostnaderna":12378,"Ġanse":12379,"antalet":12380,"bÃ¥tar":12381,"rÃ¥ket":12382,"Ġhelgens":12383,"Ã¤mnade":12384,"hÃ¶":12385,"Ġlyss":12386,"oa":12387,"ĠtillgÃ¥ngen":12388,"sÃ¤kerhet":12389,"Ġannans":12390,"ĠWebb":12391,"Ġbete":12392,"Ġambitioner":12393,"Ġkick":12394,"ĠNick":12395,"Ġmisshand":12396,"ĠrÃ¶v":12397,"ĠkonstnÃ¤rliga":12398,"fÃ¶ljd":12399,"Ġeh":12400,"kapital":12401,"Ġutmanande":12402,"Ġkrog":12403,"Ġtera":12404,"vande":12405,"ĠmÃ¥lningar":12406,"ĠForum":12407,"ĠNet":12408,"Ġmedierna":12409,"delningar":12410,"ĠÃ¤ran":12411,"ĠSkapa":12412,"Ġgall":12413,"Ġull":12414,"sorganisation":12415,"Ġlotter":12416,"Ġtoner":12417,"Ġsympat":12418,"ĠIndonesien":12419,"ĠmÃ¤ss":12420,"ĠVarken":12421,"Ã¶rn":12422,"JÃĸ":12423,"ĠVuxen":12424,"Ġ1943":12425,"ungar":12426,"Ġstig":12427,"bordet":12428,"ĠtrÃ¥kiga":12429,"less":12430,"ĠtillÃ¤mpa":12431,"inerna":12432,"sbank":12433,"LAND":12434,"ĠfÃ¶religga":12435,"sbanken":12436,"Ġteck":12437,"ĠNatt":12438,"Ġnyheterna":12439,"MS":12440,"ansÃ¶kan":12441,"ĠPorno":12442,"ĠSeg":12443,"Ġsektion":12444,"ĠberÃ¶rs":12445,"Ġmeny":12446,"ĠfunktionsnedsÃ¤ttning":12447,"ĠMas":12448,"Ġbefatt":12449,"Ġkonserten":12450,"Ġtem":12451,"ĠuppgÃ¥ng":12452,"ĠbjÃ¶ds":12453,"Ã¤songen":12454,"gÃ¤ster":12455,"Ġstuderat":12456,"rust":12457,"Ġamerikanske":12458,"Ġfortare":12459,"Ġpropag":12460,"ĠÃħt":12461,"Ġintroduktion":12462,"Ġklubbarna":12463,"ĠFranz":12464,"spartiet":12465,"emot":12466,"fÃ¶rhÃ¥llanden":12467,"Ġ190":12468,"ĠData":12469,"Ġlampor":12470,"ĠAllmÃ¤nna":12471,"ĠSkÃ¥n":12472,"vil":12473,"ĠTidning":12474,"made":12475,"Ġgris":12476,"ĠKommentar":12477,"ĠMir":12478,"95":12479,"givande":12480,"Ġfla":12481,"Ġsexuell":12482,"ĠAngel":12483,"Ġnetto":12484,"Ġgaranterar":12485,"Ġfriluft":12486,"Ġkopplat":12487,"Ġlang":12488,"arten":12489,"ĠArsenal":12490,"ĠGanska":12491,"Ġpaketet":12492,"Ġbeseg":12493,"anslag":12494,"ssidan":12495,"ĠLeo":12496,"ĠsjÃ¤lvklarhet":12497,"skill":12498,"ĠNybro":12499,"Ġutmed":12500,"yter":12501,"ĠNaken":12502,"Ġstolthet":12503,"Ġryckte":12504,"pal":12505,"ĠWid":12506,"Ġfastighets":12507,"ĠFall":12508,"Ġstabilitet":12509,"ĠmÃ¶jliggÃ¶ra":12510,"¨":12511,"anmÃ¤lan":12512,"kro":12513,"Ġorganisera":12514,"ektionen":12515,"km":12516,"Ġtekn":12517,"ĠkÃ¤ndis":12518,"visas":12519,"Ġsatsat":12520,"Ġning":12521,"ç":12522,"ĠfaststÃ¤lla":12523,"Ġbegav":12524,"Ġlockade":12525,"Ġavgjorde":12526,"ih":12527,"ĠersÃ¤tter":12528,"olitik":12529,"Ġtester":12530,"ĠFitta":12531,"Ġupploppet":12532,"ĠvÃ¤nstra":12533,"ĠpÃ¥stod":12534,"Ġjubileum":12535,"Ġjulklappar":12536,"ĠTull":12537,"Ġhuvudkontor":12538,"snÃ¤mn":12539,"ĠFortfarande":12540,"Ġinspirerad":12541,"Ġuppskattat":12542,"manna":12543,"ĠBB":12544,"ĠPengar":12545,"ĠjÃ¤ttemycket":12546,"ĠutslÃ¤ppen":12547,"ANDE":12548,"TM":12549,"ifta":12550,"ĠhÃ¶gern":12551,"ĠfÃ¶rne":12552,"Ġkampanjen":12553,"Ġambassad":12554,"Ġhiss":12555,"ĠMun":12556,"ĠÃ¥terf":12557,"lister":12558,"Ġpoker":12559,"ĠdelÃ¤gare":12560,"ĠsvÃ¥raste":12561,"Ġ165":12562,"Ġmotivera":12563,"Ġtelefoner":12564,"ĠFrans":12565,"fÃ¶reningar":12566,"Ġklickar":12567,"Ġidrotts":12568,"ĠÃħlder":12569,"Ġlagkapten":12570,"ĠKata":12571,"Ġtenderar":12572,"ĠUniversitet":12573,"oker":12574,"ĠavvÃ¤g":12575,"Ġundviker":12576,"ĠnÃ¶jes":12577,"ĠTran":12578,"ĠonÃ¶diga":12579,"ĠVÃ¤sby":12580,"ĠEngstrÃ¶m":12581,"ĠPL":12582,"ĠfÃ¶rsvag":12583,"ĠSÃ¶dermalm":12584,"Ġflagg":12585,"middag":12586,"ĠvalrÃ¶relsen":12587,"ĠrÃ¥dde":12588,"asc":12589,"Ġvari":12590,"Ġskrivet":12591,"Ġgenerella":12592,"ĠifrÃ¥gasÃ¤tta":12593,"Ġordnat":12594,"wer":12595,"ĠLP":12596,"hÃ¶j":12597,"Ġpund":12598,"Ġbeskrev":12599,"ĠObservera":12600,"akon":12601,"rÃ¤dde":12602,"Ġrapportera":12603,"ĠbedÃ¶mas":12604,"ĠReinfeldt":12605,"vald":12606,"ĠunderrÃ¤tt":12607,"Ġkonferensen":12608,"Ġstilen":12609,"Ġbeviljas":12610,"Ġskickades":12611,"ĠSY":12612,"ĠDE":12613,"ĠÃ¶nskvÃ¤rd":12614,"styrelse":12615,"ĠWolf":12616,"oph":12617,"ĠWallin":12618,"ĠFace":12619,"Ġpasta":12620,"Ġyrket":12621,"ĠMAR":12622,"ĠHÃ¤rnÃ¶sand":12623,"Ġsimma":12624,"ĠjÃ¤rnvÃ¤gen":12625,"ĠElias":12626,"Ġmeriterande":12627,"Ġkunga":12628,"Ġriksdags":12629,"ķ":12630,"Ġfunktionen":12631,"ĠKil":12632,"ĠTrÃ¤":12633,"Ġavsugning":12634,"Ġskyltar":12635,"ĠvÃ¥":12636,"ĠArvid":12637,"ĠMelodifestivalen":12638,"ĠtillÃ¤mp":12639,"makten":12640,"ĠMellanÃ¶stern":12641,"Ġfixat":12642,"avÃ¤gen":12643,"ĠÃ¥tn":12644,"ĠsjÃ¤lvklara":12645,"ĠStud":12646,"Ġpublicera":12647,"ĠCentern":12648,"Ġsymptom":12649,"ĠstÃ¤ng":12650,"Ġskorna":12651,"ante":12652,"Ġklagar":12653,"grupperna":12654,"skontor":12655,"ĠFÃ¶renta":12656,"lÃ¶f":12657,"ĠuppgÃ¥":12658,"Ġuppskattning":12659,"handlingen":12660,"iljan":12661,"ĠHelge":12662,"ĠÃ¶ppnades":12663,"ĠmÃ¶":12664,"ĠfÃ¶rny":12665,"Ġotur":12666,"ĠlÃ¶senord":12667,"slÃ¤":12668,"ĠlÃ¤gret":12669,"itch":12670,"ĠNorrbottens":12671,"kyl":12672,"mund":12673,"ĠOmrÃ¥det":12674,"ĠÃ¥talade":12675,"ĠArvika":12676,"ĠTjeck":12677,"ĠBohuslÃ¤n":12678,"lÃ¶n":12679,"GG":12680,"Ġtrupper":12681,"skning":12682,"ĠmilitÃ¤rt":12683,"ĠRoyal":12684,"Ġskil":12685,"Ġansikt":12686,"ĠfÃ¶rts":12687,"Ġark":12688,"Ġskildrar":12689,"Ġande":12690,"ĠlÃ¥ngsiktig":12691,"ĠPolitik":12692,"ĠdrÃ¶mma":12693,"Ġanpassning":12694,"ĠEli":12695,"Ġspegel":12696,"Ġsto":12697,"grepp":12698,"test":12699,"ĠfÃ¶rnÃ¤m":12700,"Ġgang":12701,"golv":12702,"ĠFranc":12703,"ĠEK":12704,"ĠEld":12705,"ĠFÃ¤rg":12706,"Ġjurist":12707,"Ġaktien":12708,"isser":12709,"Ġnyckeln":12710,"ĠSÃ¥ng":12711,"ĠChicago":12712,"Ġattraktiva":12713,"Ġnoterade":12714,"Ġhungrig":12715,"ĠtÃ¤ta":12716,"ĠSver":12717,"bÃ¶rd":12718,"Ġhygg":12719,"das":12720,"ĠFÃ¶rsÃ¤kringskassan":12721,"alerna":12722,"Ġplanerad":12723,"Ġfingrar":12724,"oke":12725,"Ġkult":12726,"Ã¥ll":12727,"ĠRumÃ¤nien":12728,"ĠomstÃ¤ndigheterna":12729,"sett":12730,"ĠAz":12731,"66":12732,"Ġjobbig":12733,"Ġsexig":12734,"Ġsned":12735,"ĠersÃ¤ttas":12736,"lock":12737,"Ġskicklig":12738,"ĠDAG":12739,"ĠFager":12740,"Ġporslin":12741,"ollen":12742,"ĠregissÃ¶r":12743,"ĠSN":12744,"placering":12745,"Ġmotsatsen":12746,"yndigheten":12747,"strÃ¤ning":12748,"ĠmÃ¤rklig":12749,"DS":12750,"ĠSamt":12751,"atÃ¶rer":12752,"Ġrubb":12753,"jol":12754,"Ġkvartsfinal":12755,"Ġpek":12756,"iala":12757,"rix":12758,"bitar":12759,"angel":12760,"Ã¤genhet":12761,"ĠFyr":12762,"34":12763,"ĠbjÃ¶rn":12764,"ufvud":12765,"Ġfra":12766,"ĠTisdag":12767,"Ġreserver":12768,"Ġkostym":12769,"Ġinneha":12770,"ĠgÃ¤rning":12771,"Ġregleras":12772,"Ġirriterad":12773,"ĠKvinn":12774,"ĠMÃ¥tt":12775,"ĠCamp":12776,"Ġplikt":12777,"Ġresterande":12778,"Ġunderteck":12779,"Ġdiskret":12780,"Ġest":12781,"Ġtillbaks":12782,"si":12783,"Ġglans":12784,"Ġsuga":12785,"ĠPengarna":12786,"ĠBMW":12787,"Ġgransk":12788,"Ġkonstverk":12789,"Ġtestar":12790,"ĠUtskottet":12791,"Ġmaskinen":12792,"Ġblandar":12793,"Ġdominerar":12794,"stationer":12795,"Ġgood":12796,"fÃ¶re":12797,"Ġaxeln":12798,"gavs":12799,"ĠenastÃ¥ende":12800,"ĠmÃ¥nads":12801,"strafik":12802,"Ġskum":12803,"vÃ¤xtart":12804,"ĠfÃ¶retagens":12805,"Ġkapit":12806,"ĠanmÃ¤lda":12807,"Ġsyre":12808,"Ġvillor":12809,"ĠRÃ¶nn":12810,"ĠKer":12811,"Ġpan":12812,"Ġevigt":12813,"Ġzon":12814,"Ġkonstiga":12815,"Ġrann":12816,"sskatten":12817,"itiv":12818,"ĠfÃ¶rtjÃ¤n":12819,"Ġrullade":12820,"brottet":12821,"ĠframfÃ¶ra":12822,"Ġdansar":12823,"Ġsamlad":12824,"deln":12825,"givna":12826,"ĠÃħtminstone":12827,"Ġbortaplan":12828,"ĠVÃ¤gen":12829,"ĠBruk":12830,"Ġkaka":12831,"ĠtÃ¥r":12832,"ĠÃ¤gar":12833,"ĠPrag":12834,"Ġboenden":12835,"Ġnotera":12836,"ĠModer":12837,"ĠbegrÃ¤nsning":12838,"ulen":12839,"enom":12840,"ĠsÃ¤nker":12841,"ĠSkandinavien":12842,"Ġbergig":12843,"ĠSÃ¥som":12844,"Ġuppskattad":12845,"Ġskrivna":12846,"Ġkastrull":12847,"Ġetabl":12848,"ĠvÃ¤nliga":12849,"atern":12850,"Ġstudenterna":12851,"ĠtjÃ¤nsterna":12852,"ĠHIF":12853,"zen":12854,"Ã¤rare":12855,"unge":12856,"ĠNordstrÃ¶m":12857,"ĠLog":12858,"Ġolivolja":12859,"Ġkommunstyrelsens":12860,"Ã¥get":12861,"lam":12862,"Ġromantisk":12863,"ĠNiclas":12864,"ĠFÃ¶rmodligen":12865,"Ġve":12866,"Ġmedborgar":12867,"ĠKvarn":12868,"spress":12869,"ĠBjur":12870,"zy":12871,"ĠVeckans":12872,"ĠÃ¶k":12873,"ologer":12874,"Ġlamm":12875,"vandring":12876,"stÃ¤lla":12877,"Ġreder":12878,"any":12879,"nor":12880,"Ġstar":12881,"inerade":12882,"Ġkoncentrera":12883,"Ġtvingar":12884,"ibel":12885,"ĠScott":12886,"mÃ¥":12887,"ĠbehÃ¥ller":12888,"ĠStock":12889,"Ġindustrier":12890,"elever":12891,"ĠPeking":12892,"Ġslant":12893,"ĠGÃ¶t":12894,"Ġstartades":12895,"Ġdugg":12896,"ĠLokala":12897,"fal":12898,"ĠBusiness":12899,"ĠframstÃ¥ende":12900,"gener":12901,"savgiften":12902,"Ġfemma":12903,"ĠJud":12904,"ĠbelÃ¤gg":12905,"skyddet":12906,"Ġhigh":12907,"ĠWilliams":12908,"ĠvÃ¤nstern":12909,"Ġhemiboreala":12910,"Ġbind":12911,"Ġbutikerna":12912,"derad":12913,"Ġutomordentligt":12914,"ISK":12915,"Ġlagens":12916,"Ġansluter":12917,"è":12918,"Ġminim":12919,"ĠCall":12920,"Ġdepartement":12921,"Ġprestera":12922,"Ġbos":12923,"ĠMogen":12924,"ĠVerksamhet":12925,"Ġmid":12926,"Ã¥rige":12927,"Ġtalare":12928,"Ġinledningen":12929,"Ġspark":12930,"ĠPetra":12931,"Ġutformas":12932,"Ġende":12933,"Ġnumer":12934,"ĠGotlands":12935,"itel":12936,"Ġledarna":12937,"EG":12938,"ĠvÃ¥ldsamma":12939,"ĠÃ¶nsk":12940,"ĭ":12941,"Ġlas":12942,"Ġkomponenter":12943,"ĠJur":12944,"Ġkampanjer":12945,"undersÃ¶kningen":12946,"Ġsvensken":12947,"Ġskadar":12948,"shistoria":12949,"ĠfÃ¶rakt":12950,"ĠDrygt":12951,"Ġotrolig":12952,"Ġadressen":12953,"ĠgrÃ¤dd":12954,"Ġordnings":12955,"lÃ¤get":12956,"ĠTjeckien":12957,"ĠvÃ¤gledning":12958,"Ġorimligt":12959,"hÃ¶lls":12960,"Ġserverar":12961,"ĠUpplands":12962,"Ġjournalisten":12963,"ĠKlimat":12964,"ax":12965,"ĠKvÃ¤ll":12966,"ĠvÃ¤ll":12967,"ĠSynd":12968,"roth":12969,"ĠskÃ¥nska":12970,"ĠfÃ¶rordning":12971,"direkt":12972,"Ġantik":12973,"Ġadministrativ":12974,"ĠFokus":12975,"ĠEnda":12976,"ĠfÃ¶rskolor":12977,"lever":12978,"rÃ¤dare":12979,"visar":12980,"Ġprocentenheter":12981,"ĠuppnÃ¥s":12982,"ely":12983,"ĠPassar":12984,"ĠBorgen":12985,"Ġkrigs":12986,"Ġtjuv":12987,"Ġarrangera":12988,"Ġspet":12989,"ĠLuft":12990,"Ġsprids":12991,"skick":12992,"ĠkommunalrÃ¥d":12993,"ĠÃ¥beropa":12994,"ĠVerk":12995,"ĠblÃ¥ste":12996,"Ġhylla":12997,"ĠStorm":12998,"ĠLes":12999,"Ġgri":13000,"Ġmuslimska":13001,"rÃ¤kningen":13002,"mÃ¤rke":13003,"ĠupprÃ¤tta":13004,"55":13005,"ĠÃħre":13006,"Ã¤ttningen":13007,"Ġopp":13008,"bruket":13009,"ĠupphÃ¤v":13010,"ijer":13011,"splanering":13012,"ĠRent":13013,"Ġminskas":13014,"ĠgÃ¤r":13015,"ĠfÃ¶rnekar":13016,"ĠSist":13017,"ĠKomm":13018,"Ġsamtycke":13019,"gg":13020,"osten":13021,"Ġnyfikna":13022,"Ġtall":13023,"Ġpolicy":13024,"Ġmaximalt":13025,"illen":13026,"onia":13027,"Ġ220":13028,"ĠZe":13029,"kÃ¶tt":13030,"Ġanskaff":13031,"Ã¶va":13032,"stÃ¤der":13033,"havande":13034,"ĠfÃ¶rhÃ¥llningssÃ¤tt":13035,"tex":13036,"Ġrikta":13037,"STER":13038,"ĠmÃ¤rket":13039,"ĠhÃ¤nfÃ¶r":13040,"ĠUrban":13041,"ĠtÃ¤vlade":13042,"ĠSkatteverket":13043,"ydda":13044,"ĠPetersson":13045,"ĠVegas":13046,"ĠKON":13047,"GIF":13048,"Ġgraviditet":13049,"Ġinbju":13050,"ĠstjÃ¤l":13051,"Ġinsidan":13052,"Ġsjunka":13053,"ĠvÃ¤skan":13054,"ĠbestÃ¤llde":13055,"ĠTore":13056,"mÃ¥n":13057,"ĠCas":13058,"Ġbeford":13059,"Ġkloka":13060,"ĠhandlÃ¤ggning":13061,"Ġorsakade":13062,"sporten":13063,"ĠMilf":13064,"ĠKonsert":13065,"Ã¦":13066,"Ġkonkurrera":13067,"Ġstadsdelen":13068,"sledning":13069,"ĠExpressens":13070,"Ġmotivering":13071,"Ġaut":13072,"ĠRebecca":13073,"yrka":13074,"Ġpussel":13075,"ĠDrottning":13076,"Ġbliva":13077,"ĠsocialtjÃ¤nsten":13078,"ĠblÃ¶t":13079,"polis":13080,"ĠbegÃ¤rde":13081,"Ġlitar":13082,"ĠslÃ¤t":13083,"Ġrop":13084,"Ġsamord":13085,"Ã¶der":13086,"Ġhistor":13087,"ĠhÃ¶n":13088,"Ġinstallera":13089,"ĠKval":13090,"Ġtretton":13091,"ĠKajsa":13092,"seg":13093,"ĠuppsÃ¤ttning":13094,"ĠPlat":13095,"ĠmarknadsfÃ¶r":13096,"ĠÃĸstermalm":13097,"Ġankomst":13098,"ĠLyssna":13099,"stjÃ¤rna":13100,"Ġrec":13101,"skom":13102,"Ġbokning":13103,"sbok":13104,"sfÃ¶rhÃ¥llanden":13105,"ĠkrÃ¤vt":13106,"celler":13107,"Ġflexibel":13108,"sters":13109,"ĠutbredningsomrÃ¥de":13110,"Ġnickade":13111,"Ġkulle":13112,"Ġringt":13113,"nal":13114,"Ã¤rn":13115,"Ġkulturer":13116,"jour":13117,"Ġflydde":13118,"sbehov":13119,"avtalet":13120,"wich":13121,"uellt":13122,"skedet":13123,"ĠarbetslÃ¶s":13124,"spels":13125,"sfÃ¶rmÃ¥ga":13126,"Ġnett":13127,"Ġrepresentera":13128,"Ġstru":13129,"ĠBorde":13130,"Ġbol":13131,"Ġmedverkat":13132,"ĠTan":13133,"dis":13134,"ĠÃ¥klag":13135,"Ġsvett":13136,"Ġflyter":13137,"Ã¤ta":13138,"Ġmini":13139,"Ġkropps":13140,"Ã¶lja":13141,"Ġinstitutionen":13142,"Ġskakade":13143,"Ġbam":13144,"ĠfÃ¶rbÃ¤ttrad":13145,"Ġ112":13146,"igar":13147,"ĠvÃ¥ldet":13148,"Ġkaffet":13149,"Ġilska":13150,"Ġhelsingborg":13151,"ydde":13152,"Ġbesparingar":13153,"Ĺ":13154,"fort":13155,"ĠGlad":13156,"ĠfÃ¶ds":13157,"ĠsjÃ¤lvstÃ¤ndig":13158,"verkan":13159,"visade":13160,"ĠtillhÃ¶ra":13161,"ĠHouse":13162,"Ġsmidig":13163,"Ġhugg":13164,"ĠTina":13165,"ĠKronor":13166,"Ġfp":13167,"ĠvÃ¥gat":13168,"ĠrÃ¶strÃ¤tt":13169,"ÃĸPING":13170,"IB":13171,"ete":13172,"lers":13173,"Ġbem":13174,"Ġavsett":13175,"Ġschemat":13176,"erry":13177,"Ġtrappa":13178,"hugg":13179,"Ġfilter":13180,"ĠBestÃ¤ll":13181,"ĠerbjÃ¶d":13182,"ĠomÃ¶jlig":13183,"Ġ1918":13184,"belopp":13185,"rif":13186,"ĠmÃ¤nskligheten":13187,"sledaren":13188,"Ġfolks":13189,"Ġgrundade":13190,"ĠHenriksson":13191,"Ġhittas":13192,"Ġsemifinalen":13193,"ĠRoss":13194,"ĠFÃ¶rbund":13195,"ĠÃ¶vertygade":13196,"amÃ¥l":13197,"rÃ¤nta":13198,"ĠKÃ¤lla":13199,"ĠEkonom":13200,"ĠKostnad":13201,"Ġpenis":13202,"Ġmediciner":13203,"ĠrÃ¶dgrÃ¶na":13204,"Ġgenerationen":13205,"ĠPutin":13206,"ERS":13207,"Ġbibel":13208,"verkstad":13209,"ĠfrÃ¥g":13210,"Ġdiskuterade":13211,"ĠvÃ¤rna":13212,"ssekreterare":13213,"deras":13214,"irig":13215,"skin":13216,"Ġsanna":13217,"ĠsnÃ¶r":13218,"iam":13219,"Ġblandskog":13220,"slokaler":13221,"ĠHÃ¤ls":13222,"Ġbokslut":13223,"ĠhÃ¶jas":13224,"Ġlyckat":13225,"Ġdistansen":13226,"fylld":13227,"etar":13228,"ebr":13229,"ĠViking":13230,"ĠbekrÃ¤ft":13231,"alag":13232,"Ġboendet":13233,"ĠbyrÃ¥krat":13234,"mÃ¤rken":13235,"Ġinkommit":13236,"Ã¤genheter":13237,"Ġfotografier":13238,"ĠSPF":13239,"Ġsekr":13240,"ĠCeder":13241,"snitt":13242,"ĠMig":13243,"urar":13244,"Ġinleda":13245,"ĠhÃ¤v":13246,"Ã¶det":13247,"ĠSMHI":13248,"samlingen":13249,"ĠUtt":13250,"Ġskuggan":13251,"Ġfordonet":13252,"hÃ¶jning":13253,"Ã¶pp":13254,"ĠÃĸrjan":13255,"ĠfÃ¶rklaringen":13256,"ĠÂ¶":13257,"ĠRosa":13258,"ĠLycka":13259,"ĠTyresÃ¶":13260,"pin":13261,"ĠsmÃ¤lt":13262,"Ġskul":13263,"Ġflod":13264,"Ġunderstryker":13265,"ĠFab":13266,"ĠlÃ¥":13267,"Ġproduceras":13268,"ivare":13269,"stÃ¥r":13270,"well":13271,"ocial":13272,"Ġour":13273,"ĠFjÃ¤ll":13274,"Ġsolidaritet":13275,"Ġ240":13276,"ĠPs":13277,"familjen":13278,"ĠDI":13279,"Ġintrycket":13280,"Ġfastnar":13281,"Ġutrymmen":13282,"Ġexpedition":13283,"Ġ360":13284,"Ġpartners":13285,"ĠRiksdag":13286,"ĠavslÃ¶jade":13287,"ĠMÃ¤rk":13288,"Ġnarkotikabrott":13289,"Ġpopularitet":13290,"Ġobet":13291,"husets":13292,"slÃ¤pp":13293,"teras":13294,"ĠutfÃ¶rande":13295,"ekon":13296,"Ġtrakasserier":13297,"ĠStÃ¥l":13298,"design":13299,"ĠWell":13300,"ĠLA":13301,"urt":13302,"Ġskapades":13303,"Ġeskorter":13304,"Ġkakel":13305,"ĠSub":13306,"Ã©e":13307,"Ġprick":13308,"ĠÃ¤ndamÃ¥let":13309,"ĠKoll":13310,"ĠJerusalem":13311,"Ã¤nta":13312,"ĠByggnad":13313,"Ġkommunernas":13314,"Ġmyt":13315,"Ġhalver":13316,"sfl":13317,"Ġinlett":13318,"undersÃ¶kningar":13319,"ĠrÃ¥tt":13320,"krit":13321,"ĠSÃ¥l":13322,"ava":13323,"ĠMindre":13324,"ĠGrÃ¥":13325,"sfall":13326,"ĠumeÃ¥":13327,"Ġupplysning":13328,"Ġmobb":13329,"ĠsprÃ¥":13330,"Ġisol":13331,"ĠKroatien":13332,"ckte":13333,"ĠJaha":13334,"Ġkalender":13335,"ĠMunk":13336,"ĠEdward":13337,"ĠfÃ¶rbjuda":13338,"uch":13339,"Ġlanda":13340,"Ġbist":13341,"Ġinrym":13342,"elig":13343,"Ġbjudit":13344,"Ġkines":13345,"ÃħS":13346,"ĠUnibet":13347,"Ġjacka":13348,"etiska":13349,"ĠlÃ¶pning":13350,"sbro":13351,"Ġnor":13352,"slivet":13353,"ĠAndelen":13354,"ĠLang":13355,"Ġpotentiella":13356,"Ġkemi":13357,"fem":13358,"ĠNordens":13359,"index":13360,"Ġ5000":13361,"Ġschema":13362,"eland":13363,"Ġvariation":13364,"rens":13365,"post":13366,"byggda":13367,"ĠJA":13368,"Ġkommunalt":13369,"Ġutbrott":13370,"ullar":13371,"Ã¤mma":13372,"ĠbemÃ¶tande":13373,"Ġresurs":13374,"spriset":13375,"ĠSystemet":13376,"ĠinstÃ¤lld":13377,"Ġschack":13378,"BS":13379,"gning":13380,"ĠavgÃ¥":13381,"Ġfinansminister":13382,"ĠNil":13383,"riktad":13384,"riker":13385,"buss":13386,"ĠGoda":13387,"Ġ1936":13388,"Ġomval":13389,"ĠTrygg":13390,"ĠtvÃ¤rs":13391,"ĠRod":13392,"Ġgenomsnittet":13393,"registr":13394,"Ġorsakat":13395,"ĠSwedbank":13396,"Ġakademiker":13397,"ĠAbb":13398,"Ġavgiften":13399,"ĠVen":13400,"ĠpÃ¥stÃ¥enden":13401,"ĠhjÃ¤lpen":13402,"ĠemellanÃ¥t":13403,"Ń":13404,"alle":13405,"Ġhusdjur":13406,"ĠSune":13407,"Ġsammans":13408,"Ġgrundlag":13409,"Ġkik":13410,"Ġvetenskaplig":13411,"Ġskugga":13412,"dav":13413,"savtalet":13414,"jul":13415,"ĠModern":13416,"Ġklocka":13417,"ĠLine":13418,"ĠhÃ¤lsan":13419,"Ġnyin":13420,"Ġsvin":13421,"ysning":13422,"ĠSak":13423,"ĠArtens":13424,"utrust":13425,"Ġpast":13426,"Ġvecko":13427,"ĠmÃ¶tes":13428,"ĠRapport":13429,"snÃ¤t":13430,"Ġuppdatering":13431,"datum":13432,"Ġtrosor":13433,"Ġtwitter":13434,"Ġomtal":13435,"ĠfÃ¶rtjÃ¤nst":13436,"ĠsÃ¤llskapet":13437,"Ġformul":13438,"Ġrita":13439,"lÃ¶v":13440,"rÃ¤ning":13441,"ĠtrÃ¥ngt":13442,"Ġque":13443,"Ġ103":13444,"Ġpartis":13445,"ĠGru":13446,"Ġutk":13447,"Ġkritiskt":13448,"ĠvÃ¤rdefullt":13449,"ĠstÃ¤mman":13450,"Ġservicen":13451,"Ġventilation":13452,"ĠGul":13453,"ĠLudvika":13454,"85":13455,"liggande":13456,"ĠAgnes":13457,"Ġutse":13458,"ĠNisse":13459,"Ġriktas":13460,"sider":13461,"ĠfÃ¶rlÃ¥t":13462,"ival":13463,"ĠerkÃ¤nde":13464,"Ġstressad":13465,"sklubb":13466,"Ġsensation":13467,"Ġhemland":13468,"Ġ104":13469,"eser":13470,"olitiska":13471,"ornet":13472,"ĠupphÃ¶ra":13473,"Ġkrogen":13474,"Ġfriskt":13475,"ĠPlanen":13476,"Ã¤mne":13477,"splikt":13478,"Ġsystematiskt":13479,"ville":13480,"lÃ¤ggare":13481,"Ġfinansieras":13482,"Ġbacka":13483,"Ġfelaktig":13484,"visningen":13485,"ĠOlov":13486,"Ġps":13487,"ĠBio":13488,"ĠFelix":13489,"Ġrykten":13490,"ĠÃ¶verlevnad":13491,"Ġdelaktighet":13492,"orde":13493,"ĠHÃ¶st":13494,"ĠOld":13495,"tak":13496,"smarknaden":13497,"ĠHann":13498,"Ġutflykt":13499,"ĠMorgon":13500,"sfullmÃ¤ktige":13501,"Ġsymboler":13502,"eus":13503,"olit":13504,"ĠomsÃ¤ttningen":13505,"fÃ¥ng":13506,"Ġhomosexuella":13507,"ĠTropiskt":13508,"ĠMicrosoft":13509,"ĠnÃ¤rmsta":13510,"Ġkock":13511,"ĠEmelie":13512,"Ġkatolska":13513,"ĠSouth":13514,"ĠfÃ¶delse":13515,"ĠLinnea":13516,"ffÃ¤r":13517,
[...]
